{
  "backend": {
    "added_tokens": [
      {
        "content": "<s>",
        "id": 0,
        "lstrip": false,
        "normalized": false,
        "rstrip": false,
        "single_word": false,
        "special": true
      },
      {
        "content": "<pad>",
        "id": 1,
        "lstrip": false,
        "normalized": false,
        "rstrip": false,
        "single_word": false,
        "special": true
      },
      {
        "content": "</s>",
        "id": 2,
        "lstrip": false,
        "normalized": false,
        "rstrip": false,
        "single_word": false,
        "special": true
      },
      {
        "content": "<unk>",
        "id": 3,
        "lstrip": false,
        "normalized": false,
        "rstrip": false,
        "single_word": false,
        "special": true
      },
      {
        "content": "<mask>",
        "id": 4,
        "lstrip": true,
        "normalized": true,
        "rstrip": false,
        "single_word": false,
        "special": true
      },
      {
        "content": "eng_Latn",
        "id": 5,
        "lstrip": false,
        "normalized": false,
        "rstrip": false,
        "single_word": false,
        "special": true
      },
      {
        "content": "zho_Hans",
        "id": 6,
        "lstrip": false,
        "normalized": false,
        "rstrip": false,
        "single_word": false,
        "special": true
      },
      {
        "content": "zho_Hant",
        "id": 7,
        "lstrip": false,
        "normalized": false,
        "rstrip": false,
        "single_word": false,
        "special": true
      },
      {
        "content": "jpn_Jpan",
        "id": 8,
        "lstrip": false,
        "normalized": false,
        "rstrip": false,
        "single_word": false,
        "special": true
      },
      {
        "content": "kor_Hang",
        "id": 9,
        "lstrip": false,
        "normalized": false,
        "rstrip": false,
        "single_word": false,
        "special": true
      }
    ],
    "decoder": {
      "prepend_scheme": "always",
      "replacement": "▁",
      "split": true,
      "type": "Metaspace"
    },
    "model": {
      "byte_fallback": false,
      "continuing_subword_prefix": null,
      "dropout": null,
      "end_of_word_suffix": null,
      "fuse_unk": true,
      "ignore_merges": false,
      "merges": [
        [
          "▁",
          "t"
        ],
        [
          "▁",
          "a"
        ],
        [
          "i",
          "n"
        ],
        [
          "h",
          "e"
        ],
        [
          "r",
          "e"
        ],
        [
          "다",
          "."
        ],
        [
          "o",
          "n"
        ],
        [
          "e",
          "r"
        ],
        [
          "▁t",
          "he"
        ],
        [
          "a",
          "t"
        ],
        [
          "▁",
          "s"
        ],
        [
          "▁",
          "o"
        ],
        [
          "e",
          "n"
        ],
        [
          "▁",
          "c"
        ],
        [
          "▁",
          "w"
        ],
        [
          "i",
          "t"
        ],
        [
          "e",
          "s"
        ],
        [
          "a",
          "n"
        ],
        [
          "す",
          "。"
        ],
        [
          "o",
          "r"
        ],
        [
          "in",
          "g"
        ],
        [
          "i",
          "s"
        ],
        [
          "o",
          "u"
        ],
        [
          "▁",
          "p"
        ],
        [
          "▁a",
          "n"
        ],
        [
          "a",
          "l"
        ],
        [
          "▁",
          "b"
        ],
        [
          "▁",
          "f"
        ],
        [
          "▁",
          "이"
        ],
        [
          "し",
          "て"
        ],
        [
          "e",
          "d"
        ],
        [
          "▁",
          "m"
        ],
        [
          "▁t",
          "o"
        ],
        [
          "▁o",
          "f"
        ],
        [
          "▁",
          "in"
        ],
        [
          "a",
          "r"
        ],
        [
          "▁an",
          "d"
        ],
        [
          "▁",
          "있"
        ],
        [
          "貸",
          "款"
        ],
        [
          "i",
          "c"
        ],
        [
          "i",
          "on"
        ],
        [
          "▁",
          "d"
        ],
        [
          "っ",
          "て"
        ],
        [
          "ま",
          "す。"
        ],
        [
          "l",
          "e"
        ],
        [
          "2",
          "0"
        ],
        [
          "o",
          "m"
        ],
        [
          "し",
          "た"
        ],
        [
          "으",
          "로"
        ],
        [
          "こ",
          "と"
        ],
        [
          "は",
          "、"
        ],
        [
          "す",
          "る"
        ],
        [
          "▁t",
          "h"
        ],
        [
          "▁",
          "h"
        ],
        [
          "a",
          "s"
        ],
        [
          "▁",
          "수"
        ],
        [
          "니",
          "다."
        ],
        [
          "en",
          "t"
        ],
        [
          "▁",
          "1"
        ],
        [
          "▁",
          "그"
        ],
        [
          "▁",
          "사"
        ],
        [
          "▁",
          "대"
        ],
        [
          "借",
          "款"
        ],
        [
          "에",
          "서"
        ],
        [
          "r",
          "o"
        ],
        [
          "c",
          "t"
        ],
        [
          "な",
          "い"
        ],
        [
          "▁",
          "re"
        ],
        [
          "i",
          "l"
        ],
        [
          "▁",
          "e"
        ],
        [
          "s",
          "t"
        ],
        [
          "v",
          "e"
        ],
        [
          "っ",
          "た"
        ],
        [
          "▁",
          "것"
        ],
        [
          "▁",
          "n"
        ],
        [
          "▁",
          "T"
        ],
        [
          "▁",
          "l"
        ],
        [
          "で",
          "す。"
        ],
        [
          "▁",
          "기"
        ],
        [
          "▁",
          "지"
        ],
        [
          "▁",
          "y"
        ],
        [
          "か",
          "ら"
        ],
        [
          "하",
          "는"
        ],
        [
          "e",
          "t"
        ],
        [
          "い",
          "る"
        ],
        [
          "▁",
          "I"
        ],
        [
          "▁",
          "가"
        ],
        [
          "l",
          "y"
        ],
        [
          "が",
          "、"
        ],
        [
          "▁y",
          "ou"
        ],
        [
          "銀",
          "行"
        ],
        [
          "の",
          "で"
        ],
        [
          "▁",
          "C"
        ],
        [
          "▁",
          "A"
        ],
        [
          "▁",
          "g"
        ],
        [
          "▁",
          "S"
        ],
        [
          "0",
          "0"
        ],
        [
          "c",
          "e"
        ],
        [
          "可",
          "以"
        ],
        [
          "i",
          "m"
        ],
        [
          "▁b",
          "e"
        ],
        [
          "▁",
          "전"
        ],
        [
          "at",
          "ion"
        ],
        [
          "o",
          "t"
        ],
        [
          "▁",
          "시"
        ],
        [
          "i",
          "d"
        ],
        [
          "▁",
          "is"
        ],
        [
          "借",
          "錢"
        ],
        [
          "u",
          "r"
        ],
        [
          "하",
          "고"
        ],
        [
          "s",
          "e"
        ],
        [
          "u",
          "t"
        ],
        [
          "と",
          "い"
        ],
        [
          "▁",
          "아"
        ],
        [
          "▁",
          "보"
        ],
        [
          "▁",
          "한"
        ],
        [
          "i",
          "g"
        ],
        [
          "o",
          "l"
        ],
        [
          "▁f",
          "or"
        ],
        [
          "c",
          "h"
        ],
        [
          "あ",
          "る"
        ],
        [
          "公",
          "司"
        ],
        [
          "20",
          "1"
        ],
        [
          "r",
          "a"
        ],
        [
          "o",
          "w"
        ],
        [
          "▁",
          "자"
        ],
        [
          "▁th",
          "at"
        ],
        [
          "あ",
          "り"
        ],
        [
          "▁",
          "u"
        ],
        [
          "で",
          "き"
        ],
        [
          "▁",
          "on"
        ],
        [
          "▁",
          "정"
        ],
        [
          "a",
          "y"
        ],
        [
          "▁",
          "하"
        ],
        [
          "v",
          "er"
        ],
        [
          "▁",
          "위"
        ],
        [
          "ま",
          "す"
        ],
        [
          "▁",
          "제"
        ],
        [
          "▁",
          "다"
        ],
        [
          "▁",
          "2"
        ],
        [
          "とい",
          "う"
        ],
        [
          "よ",
          "う"
        ],
        [
          "さ",
          "れ"
        ],
        [
          "に",
          "な"
        ],
        [
          "it",
          "h"
        ],
        [
          "습",
          "니다."
        ],
        [
          "▁",
          "주"
        ],
        [
          "▁",
          "인"
        ],
        [
          "i",
          "r"
        ],
        [
          "ま",
          "した"
        ],
        [
          "e",
          "l"
        ],
        [
          "工",
          "作"
        ],
        [
          "▁",
          "등"
        ],
        [
          "▁s",
          "t"
        ],
        [
          "ッ",
          "ト"
        ],
        [
          "▁",
          "("
        ],
        [
          "自",
          "己"
        ],
        [
          "で",
          "す"
        ],
        [
          "提",
          "供"
        ],
        [
          "a",
          "d"
        ],
        [
          "機",
          "車"
        ],
        [
          "い",
          "ます。"
        ],
        [
          "い",
          "て"
        ],
        [
          "▁",
          "P"
        ],
        [
          "▁",
          "경"
        ],
        [
          "▁w",
          "ith"
        ],
        [
          "a",
          "m"
        ],
        [
          "▁",
          "M"
        ],
        [
          "▁",
          "중"
        ],
        [
          "▁p",
          "ro"
        ],
        [
          "u",
          "l"
        ],
        [
          "▁",
          "“"
        ],
        [
          "小",
          "額"
        ],
        [
          "▁",
          "3"
        ],
        [
          "▁",
          "-"
        ],
        [
          "▁",
          "L"
        ],
        [
          "い",
          "た"
        ],
        [
          "▁",
          "나"
        ],
        [
          "▁a",
          "s"
        ],
        [
          "▁",
          "일"
        ],
        [
          "했",
          "다."
        ],
        [
          "一",
          "个"
        ],
        [
          "이",
          "다."
        ],
        [
          "▁",
          "it"
        ],
        [
          "▁",
          "공"
        ],
        [
          "我",
          "们"
        ],
        [
          "i",
          "f"
        ],
        [
          "な",
          "ど"
        ],
        [
          "▁c",
          "on"
        ],
        [
          "▁",
          "상"
        ],
        [
          "er",
          "s"
        ],
        [
          "m",
          "ent"
        ],
        [
          ".",
          "."
        ],
        [
          "▁o",
          "r"
        ],
        [
          "ッ",
          "ク"
        ],
        [
          "▁",
          "부"
        ],
        [
          "▁a",
          "l"
        ],
        [
          "es",
          "s"
        ],
        [
          "▁",
          "‘"
        ],
        [
          "he",
          "r"
        ],
        [
          "▁",
          "모"
        ],
        [
          "▁",
          "B"
        ],
        [
          "中",
          "国"
        ],
        [
          "▁w",
          "h"
        ],
        [
          "▁T",
          "he"
        ],
        [
          "そ",
          "の"
        ],
        [
          "服",
          "務"
        ],
        [
          "イ",
          "ン"
        ],
        [
          "t",
          "er"
        ],
        [
          "▁",
          "개"
        ],
        [
          "▁",
          "W"
        ],
        [
          "▁a",
          "re"
        ],
        [
          "▁",
          "어"
        ],
        [
          "▁있",
          "는"
        ],
        [
          "o",
          "o"
        ],
        [
          "信",
          "貸"
        ],
        [
          "▁",
          "관"
        ],
        [
          "使",
          "用"
        ],
        [
          "p",
          "p"
        ],
        [
          "可",
          "能"
        ],
        [
          "こと",
          "が"
        ],
        [
          "at",
          "e"
        ],
        [
          "汽",
          "車"
        ],
        [
          "で",
          "は"
        ],
        [
          "n",
          "d"
        ],
        [
          "发",
          "展"
        ],
        [
          "g",
          "e"
        ],
        [
          "▁",
          "D"
        ],
        [
          "il",
          "l"
        ],
        [
          "a",
          "b"
        ],
        [
          "ー",
          "ト"
        ],
        [
          "利",
          "率"
        ],
        [
          "▁",
          "의"
        ],
        [
          "▁c",
          "om"
        ],
        [
          "▁",
          "않"
        ],
        [
          "▁",
          "소"
        ],
        [
          "ま",
          "せ"
        ],
        [
          "▁w",
          "e"
        ],
        [
          "ました",
          "。"
        ],
        [
          "s",
          ","
        ],
        [
          "▁",
          "고"
        ],
        [
          "▁",
          "비"
        ],
        [
          "で",
          "、"
        ],
        [
          "で",
          "も"
        ],
        [
          "▁",
          "생"
        ],
        [
          "▁",
          "유"
        ],
        [
          "s",
          "."
        ],
        [
          "就",
          "是"
        ],
        [
          "▁",
          "해"
        ],
        [
          "1",
          "0"
        ],
        [
          "▁",
          "신"
        ],
        [
          "▁e",
          "x"
        ],
        [
          "▁",
          "우"
        ],
        [
          "k",
          "e"
        ],
        [
          "▁",
          "내"
        ],
        [
          "▁",
          "마"
        ],
        [
          "ませ",
          "ん"
        ],
        [
          "れ",
          "る"
        ],
        [
          "▁",
          "조"
        ],
        [
          "▁s",
          "u"
        ],
        [
          "r",
          "i"
        ],
        [
          "▁",
          "H"
        ],
        [
          "に",
          "、"
        ],
        [
          "▁있",
          "다."
        ],
        [
          "▁",
          "E"
        ],
        [
          "に",
          "は"
        ],
        [
          "it",
          "y"
        ],
        [
          "es",
          "t"
        ],
        [
          "こ",
          "の"
        ],
        [
          "a",
          "c"
        ],
        [
          "▁",
          "여"
        ],
        [
          "e",
          "ct"
        ],
        [
          "▁",
          "국"
        ],
        [
          "し",
          "、"
        ],
        [
          "ン",
          "グ"
        ],
        [
          "▁",
          "없"
        ],
        [
          "▁",
          "때"
        ],
        [
          "ので",
          "、"
        ],
        [
          "o",
          "re"
        ],
        [
          "▁",
          "통"
        ],
        [
          "▁",
          "F"
        ],
        [
          "▁",
          "오"
        ],
        [
          "▁d",
          "e"
        ],
        [
          "な",
          "く"
        ],
        [
          "▁",
          "he"
        ],
        [
          "u",
          "s"
        ],
        [
          "台",
          "北"
        ],
        [
          "q",
          "u"
        ],
        [
          "信",
          "用"
        ],
        [
          "▁h",
          "a"
        ],
        [
          "企",
          "业"
        ],
        [
          "▁",
          "선"
        ],
        [
          "當",
          "舖"
        ],
        [
          "た",
          "め"
        ],
        [
          "i",
          "ve"
        ],
        [
          "o",
          "p"
        ],
        [
          "▁you",
          "r"
        ],
        [
          "管",
          "理"
        ],
        [
          "▁",
          "구"
        ],
        [
          "▁",
          "연"
        ],
        [
          "と",
          "思"
        ],
        [
          "l",
          "d"
        ],
        [
          "▁",
          "말"
        ],
        [
          "ー",
          "ル"
        ],
        [
          "▁",
          "4"
        ],
        [
          "と",
          "して"
        ],
        [
          "▁",
          "방"
        ],
        [
          "u",
          "re"
        ],
        [
          "an",
          "d"
        ],
        [
          "an",
          "t"
        ],
        [
          "り",
          "、"
        ],
        [
          "ょ",
          "う"
        ],
        [
          "▁",
          "만"
        ],
        [
          "or",
          "t"
        ],
        [
          "，",
          "在"
        ],
        [
          "is",
          "t"
        ],
        [
          "▁",
          "v"
        ],
        [
          "h",
          "t"
        ],
        [
          "▁",
          "발"
        ],
        [
          "ー",
          "ス"
        ],
        [
          "▁",
          "R"
        ],
        [
          "，",
          "这"
        ],
        [
          "i",
          "es"
        ],
        [
          "들",
          "이"
        ],
        [
          "▁",
          "20"
        ],
        [
          "れ",
          "て"
        ],
        [
          "▁",
          "5"
        ],
        [
          "し",
          "い"
        ],
        [
          "も",
          "の"
        ],
        [
          "し",
          "ょう"
        ],
        [
          "▁",
          "G"
        ],
        [
          "，",
          "但"
        ],
        [
          "方",
          "法"
        ],
        [
          "社",
          "会"
        ],
        [
          "青",
          "年"
        ],
        [
          "n",
          "t"
        ],
        [
          "o",
          "s"
        ],
        [
          "そ",
          "れ"
        ],
        [
          "a",
          "in"
        ],
        [
          "▁",
          "서"
        ],
        [
          "，",
          "不"
        ],
        [
          "o",
          "c"
        ],
        [
          "だ",
          "け"
        ],
        [
          "條",
          "件"
        ],
        [
          "▁",
          "바"
        ],
        [
          "적",
          "인"
        ],
        [
          "，",
          "我"
        ],
        [
          "▁",
          "안"
        ],
        [
          "需",
          "要"
        ],
        [
          "r",
          "om"
        ],
        [
          "▁",
          "도"
        ],
        [
          "シ",
          "ョ"
        ],
        [
          "▁n",
          "e"
        ],
        [
          "ar",
          "t"
        ],
        [
          "e",
          "m"
        ],
        [
          "没",
          "有"
        ],
        [
          "▁",
          "예"
        ],
        [
          "▁",
          "미"
        ],
        [
          "▁",
          "세"
        ],
        [
          "지",
          "만"
        ],
        [
          "▁c",
          "an"
        ],
        [
          "生",
          "活"
        ],
        [
          "에",
          "게"
        ],
        [
          "重",
          "要"
        ],
        [
          "▁n",
          "ot"
        ],
        [
          "▁",
          "성"
        ],
        [
          "タ",
          "ー"
        ],
        [
          "安",
          "全"
        ],
        [
          "▁",
          "진"
        ],
        [
          "▁",
          "최"
        ],
        [
          "다",
          "는"
        ],
        [
          "し",
          "ま"
        ],
        [
          "ー",
          "ド"
        ],
        [
          "▁",
          "교"
        ],
        [
          "▁",
          "문"
        ],
        [
          "▁",
          "동"
        ],
        [
          "u",
          "m"
        ],
        [
          "▁s",
          "e"
        ],
        [
          "u",
          "n"
        ],
        [
          "さ",
          "ん"
        ],
        [
          "機車",
          "借款"
        ],
        [
          "世",
          "界"
        ],
        [
          "に",
          "よ"
        ],
        [
          "ス",
          "ト"
        ],
        [
          "다",
          "고"
        ],
        [
          "i",
          "al"
        ],
        [
          "でき",
          "る"
        ],
        [
          "れ",
          "ば"
        ],
        [
          "▁",
          "영"
        ],
        [
          "▁a",
          "t"
        ],
        [
          "▁",
          "되"
        ],
        [
          "服",
          "务"
        ],
        [
          "我",
          "們"
        ],
        [
          "買",
          "取"
        ],
        [
          "▁ha",
          "ve"
        ],
        [
          "，",
          "他"
        ],
        [
          "▁",
          "무"
        ],
        [
          "▁",
          "거"
        ],
        [
          "u",
          "st"
        ],
        [
          "設",
          "計"
        ],
        [
          "적",
          "으로"
        ],
        [
          "▁",
          "실"
        ],
        [
          "▁",
          "및"
        ],
        [
          "比",
          "較"
        ],
        [
          "▁",
          "的"
        ],
        [
          "▁",
          "O"
        ],
        [
          "▁",
          "r"
        ],
        [
          "リ",
          "ー"
        ],
        [
          "場",
          "合"
        ],
        [
          "如",
          "果"
        ],
        [
          "一",
          "個"
        ],
        [
          "이",
          "라"
        ],
        [
          "房",
          "貸"
        ],
        [
          "▁b",
          "y"
        ],
        [
          "と",
          "、"
        ],
        [
          "in",
          "e"
        ],
        [
          "研",
          "究"
        ],
        [
          "问",
          "题"
        ],
        [
          "的",
          "，"
        ],
        [
          "1",
          "9"
        ],
        [
          "日",
          "本"
        ],
        [
          "i",
          "v"
        ],
        [
          "▁",
          "분"
        ],
        [
          "▁s",
          "h"
        ],
        [
          "所",
          "以"
        ],
        [
          "▁th",
          "is"
        ],
        [
          "▁대",
          "한"
        ],
        [
          "▁c",
          "h"
        ],
        [
          "え",
          "る"
        ],
        [
          "进",
          "行"
        ],
        [
          "ッ",
          "プ"
        ],
        [
          "re",
          "s"
        ],
        [
          "▁",
          "en"
        ],
        [
          "時",
          "間"
        ],
        [
          "的",
          "人"
        ],
        [
          "하",
          "게"
        ],
        [
          "▁",
          "N"
        ],
        [
          "ラ",
          "ン"
        ],
        [
          "합",
          "니다."
        ],
        [
          "▁사",
          "람"
        ],
        [
          "諮",
          "詢"
        ],
        [
          "不",
          "是"
        ],
        [
          "하",
          "여"
        ],
        [
          "▁",
          "더"
        ],
        [
          "問",
          "題"
        ],
        [
          "요",
          "."
        ],
        [
          "t",
          "h"
        ],
        [
          "▁위",
          "해"
        ],
        [
          "して",
          "いる"
        ],
        [
          "利",
          "用"
        ],
        [
          "▁",
          "또"
        ],
        [
          "ig",
          "ht"
        ],
        [
          "o",
          "d"
        ],
        [
          "▁",
          "많"
        ],
        [
          "，",
          "而"
        ],
        [
          "p",
          "t"
        ],
        [
          "教",
          "育"
        ],
        [
          "까",
          "지"
        ],
        [
          "c",
          "om"
        ],
        [
          "個",
          "人"
        ],
        [
          "サ",
          "イ"
        ],
        [
          "▁",
          "현"
        ],
        [
          "▁w",
          "as"
        ],
        [
          "▁",
          "따"
        ],
        [
          "こ",
          "れ"
        ],
        [
          "汽車",
          "借款"
        ],
        [
          "。",
          "”"
        ],
        [
          "小額",
          "借款"
        ],
        [
          "に",
          "つ"
        ],
        [
          "▁",
          "스"
        ],
        [
          "▁",
          "장"
        ],
        [
          "ま",
          "で"
        ],
        [
          "입",
          "니다."
        ],
        [
          "借",
          "貸"
        ],
        [
          "p",
          "er"
        ],
        [
          "u",
          "d"
        ],
        [
          "▁f",
          "rom"
        ],
        [
          "什",
          "么"
        ],
        [
          "第",
          "一"
        ],
        [
          "民",
          "間"
        ],
        [
          "国",
          "家"
        ],
        [
          "え",
          "て"
        ],
        [
          "し",
          "ます。"
        ],
        [
          "高",
          "雄"
        ],
        [
          "中",
          "心"
        ],
        [
          "▁",
          "강"
        ],
        [
          "って",
          "いる"
        ],
        [
          "…",
          "…"
        ],
        [
          "房",
          "屋"
        ],
        [
          "▁",
          "le"
        ],
        [
          "技",
          "术"
        ],
        [
          "必",
          "要"
        ],
        [
          "▁",
          "201"
        ],
        [
          "i",
          "p"
        ],
        [
          "▁",
          "계"
        ],
        [
          "さ",
          "い"
        ],
        [
          "方",
          "式"
        ],
        [
          "ar",
          "d"
        ],
        [
          "▁",
          "원"
        ],
        [
          "产",
          "品"
        ],
        [
          "に",
          "も"
        ],
        [
          "▁",
          "결"
        ],
        [
          "에",
          "는"
        ],
        [
          "が",
          "あり"
        ],
        [
          "な",
          "ら"
        ],
        [
          "た",
          "い"
        ],
        [
          "ou",
          "ld"
        ],
        [
          "▁우",
          "리"
        ],
        [
          "台",
          "中"
        ],
        [
          "專",
          "業"
        ],
        [
          "하",
          "기"
        ],
        [
          "▁",
          "특"
        ],
        [
          "▁",
          "확"
        ],
        [
          "，",
          "也"
        ],
        [
          "▁w",
          "ill"
        ],
        [
          "고",
          ","
        ],
        [
          "非",
          "常"
        ],
        [
          "り",
          "ます。"
        ],
        [
          "二",
          "胎"
        ],
        [
          "企",
          "業"
        ],
        [
          "부",
          "터"
        ],
        [
          "され",
          "て"
        ],
        [
          "了",
          "，"
        ],
        [
          "f",
          "f"
        ],
        [
          "ー",
          "ム"
        ],
        [
          "▁",
          "같"
        ],
        [
          "的",
          "一"
        ],
        [
          "ン",
          "ト"
        ],
        [
          "al",
          "l"
        ],
        [
          "▁I",
          "n"
        ],
        [
          "经",
          "济"
        ],
        [
          "▁있",
          "습니다."
        ],
        [
          "建",
          "设"
        ],
        [
          "ou",
          "t"
        ],
        [
          "沒",
          "有"
        ],
        [
          "▁",
          "할"
        ],
        [
          "ません",
          "。"
        ],
        [
          "▁",
          "추"
        ],
        [
          "ま",
          "た"
        ],
        [
          "知",
          "道"
        ],
        [
          "▁",
          "알"
        ],
        [
          "ショ",
          "ン"
        ],
        [
          "了",
          "一"
        ],
        [
          "면",
          "서"
        ],
        [
          "人",
          "的"
        ],
        [
          "▁",
          "받"
        ],
        [
          "，",
          "一"
        ],
        [
          "id",
          "e"
        ],
        [
          "市",
          "场"
        ],
        [
          "整",
          "合"
        ],
        [
          "そ",
          "う"
        ],
        [
          "on",
          "e"
        ],
        [
          "re",
          "d"
        ],
        [
          "ou",
          "r"
        ],
        [
          "政",
          "府"
        ],
        [
          "か",
          "った"
        ],
        [
          "▁",
          "재"
        ],
        [
          "a",
          "g"
        ],
        [
          "デ",
          "ィ"
        ],
        [
          "▁com",
          "p"
        ],
        [
          "▁",
          "6"
        ],
        [
          "ic",
          "al"
        ],
        [
          "方",
          "面"
        ],
        [
          "었",
          "다."
        ],
        [
          "an",
          "ce"
        ],
        [
          "한",
          "다."
        ],
        [
          "通",
          "过"
        ],
        [
          "o",
          "st"
        ],
        [
          "▁s",
          "p"
        ],
        [
          "▁a",
          "b"
        ],
        [
          "了",
          "。"
        ],
        [
          "▁",
          "적"
        ],
        [
          "▁",
          "불"
        ],
        [
          "バ",
          "イ"
        ],
        [
          "a",
          "k"
        ],
        [
          "t",
          "her"
        ],
        [
          "▁",
          "당"
        ],
        [
          "ー",
          "ジ"
        ],
        [
          "i",
          "z"
        ],
        [
          "が",
          "ある"
        ],
        [
          "▁a",
          "d"
        ],
        [
          "ig",
          "n"
        ],
        [
          "▁",
          "저"
        ],
        [
          "部",
          "分"
        ],
        [
          "▁al",
          "l"
        ],
        [
          "不",
          "同"
        ],
        [
          "以",
          "及"
        ],
        [
          "テ",
          "ィ"
        ],
        [
          "ん",
          "な"
        ],
        [
          "債",
          "務"
        ],
        [
          "文",
          "化"
        ],
        [
          "中",
          "，"
        ],
        [
          "r",
          "ou"
        ],
        [
          "不",
          "能"
        ],
        [
          "i",
          "e"
        ],
        [
          "时",
          "间"
        ],
        [
          "▁p",
          "l"
        ],
        [
          "快",
          "速"
        ],
        [
          "in",
          "d"
        ],
        [
          "自",
          "分"
        ],
        [
          "▁w",
          "or"
        ],
        [
          "en",
          "d"
        ],
        [
          "主",
          "要"
        ],
        [
          "’",
          "s"
        ],
        [
          "▁",
          "在"
        ],
        [
          "a",
          "ge"
        ],
        [
          "o",
          "g"
        ],
        [
          "▁",
          "노"
        ],
        [
          "ct",
          "ion"
        ],
        [
          "しょう",
          "。"
        ],
        [
          "ic",
          "h"
        ],
        [
          "▁것",
          "이"
        ],
        [
          "▁",
          "'"
        ],
        [
          "い",
          "ます"
        ],
        [
          "ic",
          "e"
        ],
        [
          "要",
          "求"
        ],
        [
          "け",
          "る"
        ],
        [
          "工",
          "程"
        ],
        [
          "▁통",
          "해"
        ],
        [
          "▁",
          "一"
        ],
        [
          "是",
          "一"
        ],
        [
          "如",
          "何"
        ],
        [
          "on",
          "g"
        ],
        [
          "▁",
          "후"
        ],
        [
          "▁",
          "감"
        ],
        [
          "優",
          "惠"
        ],
        [
          "につ",
          "いて"
        ],
        [
          "的",
          "。"
        ],
        [
          "以",
          "上"
        ],
        [
          "el",
          "l"
        ],
        [
          "，",
          "并"
        ],
        [
          "201",
          "6"
        ],
        [
          "▁",
          "학"
        ],
        [
          "▁the",
          "ir"
        ],
        [
          "大",
          "的"
        ],
        [
          "▁",
          "설"
        ],
        [
          "들",
          "은"
        ],
        [
          "にな",
          "る"
        ],
        [
          "代",
          "書"
        ],
        [
          "ab",
          "le"
        ],
        [
          "：",
          "“"
        ],
        [
          "▁",
          "im"
        ],
        [
          "学",
          "生"
        ],
        [
          "▁",
          "K"
        ],
        [
          "▁",
          "반"
        ],
        [
          "桃",
          "園"
        ],
        [
          "or",
          "m"
        ],
        [
          "▁",
          "과"
        ],
        [
          "c",
          "c"
        ],
        [
          "▁in",
          "t"
        ],
        [
          "▁",
          "매"
        ],
        [
          "▁",
          "\""
        ],
        [
          "▁",
          "단"
        ],
        [
          "▁w",
          "he"
        ],
        [
          "よう",
          "な"
        ],
        [
          "取",
          "り"
        ],
        [
          "들",
          "의"
        ],
        [
          "の",
          "か"
        ],
        [
          "后",
          "，"
        ],
        [
          "r",
          "u"
        ],
        [
          "も",
          "、"
        ],
        [
          "om",
          "e"
        ],
        [
          "れ",
          "た"
        ],
        [
          "▁하",
          "나"
        ],
        [
          "く",
          "だ"
        ],
        [
          "好",
          "的"
        ],
        [
          "▁",
          "U"
        ],
        [
          "这",
          "个"
        ],
        [
          "▁",
          "작"
        ],
        [
          "▁",
          "k"
        ],
        [
          "コ",
          "ン"
        ],
        [
          "能",
          "力"
        ],
        [
          "商",
          "品"
        ],
        [
          "▁d",
          "o"
        ],
        [
          "な",
          "る"
        ],
        [
          "▁u",
          "s"
        ],
        [
          "中",
          "的"
        ],
        [
          "女",
          "性"
        ],
        [
          "며",
          ","
        ],
        [
          "申",
          "請"
        ],
        [
          "他",
          "们"
        ],
        [
          "試",
          "算"
        ],
        [
          "3",
          "0"
        ],
        [
          "信",
          "息"
        ],
        [
          "e",
          "c"
        ],
        [
          "▁T",
          "h"
        ],
        [
          "フ",
          "ァ"
        ],
        [
          "▁",
          "참"
        ],
        [
          "▁",
          "필"
        ],
        [
          "▁",
          "건"
        ],
        [
          "よ",
          "り"
        ],
        [
          "时",
          "，"
        ],
        [
          "ラ",
          "イ"
        ],
        [
          "に",
          "お"
        ],
        [
          "▁",
          "我"
        ],
        [
          "自己",
          "的"
        ],
        [
          "1",
          "2"
        ],
        [
          "a",
          "re"
        ],
        [
          "，",
          "是"
        ],
        [
          "的",
          "是"
        ],
        [
          "表",
          "示"
        ],
        [
          "▁",
          "j"
        ],
        [
          "め",
          "て"
        ],
        [
          "..",
          "."
        ],
        [
          "到",
          "了"
        ],
        [
          "▁",
          "회"
        ],
        [
          "▁",
          "차"
        ],
        [
          "▁1",
          "0"
        ],
        [
          "内",
          "容"
        ],
        [
          "as",
          "t"
        ],
        [
          "很",
          "多"
        ],
        [
          "都",
          "是"
        ],
        [
          "大",
          "家"
        ],
        [
          "p",
          "l"
        ],
        [
          "創",
          "業"
        ],
        [
          "▁",
          "들"
        ],
        [
          "▁",
          "활"
        ],
        [
          "i",
          "b"
        ],
        [
          "信用",
          "貸款"
        ],
        [
          "▁the",
          "y"
        ],
        [
          "留",
          "車"
        ],
        [
          "くだ",
          "さい"
        ],
        [
          "00",
          "0"
        ],
        [
          "免",
          "留車"
        ],
        [
          "▁",
          "김"
        ],
        [
          "銀行",
          "貸款"
        ],
        [
          "所",
          "有"
        ],
        [
          "生",
          "产"
        ],
        [
          "▁m",
          "e"
        ],
        [
          "系",
          "统"
        ],
        [
          "oo",
          "k"
        ],
        [
          "▁",
          "7"
        ],
        [
          "▁",
          "배"
        ],
        [
          "▁",
          "함"
        ],
        [
          "5",
          "0"
        ],
        [
          "▁con",
          "t"
        ],
        [
          "▁",
          "행"
        ],
        [
          "a",
          "p"
        ],
        [
          "品",
          "牌"
        ],
        [
          "▁",
          "["
        ],
        [
          "▁경",
          "우"
        ],
        [
          "い",
          "い"
        ],
        [
          "d",
          "u"
        ],
        [
          "▁",
          "포"
        ],
        [
          "よう",
          "に"
        ],
        [
          "因",
          "为"
        ],
        [
          "其",
          "他"
        ],
        [
          "です",
          "が、"
        ],
        [
          "▁",
          "역"
        ],
        [
          "▁사",
          "용"
        ],
        [
          "的",
          "な"
        ],
        [
          "健",
          "康"
        ],
        [
          "ね",
          "。"
        ],
        [
          "▁",
          "하는"
        ],
        [
          "ん",
          "で"
        ],
        [
          "▁",
          "운"
        ],
        [
          "の",
          "は"
        ],
        [
          "土",
          "地"
        ],
        [
          "a",
          "ke"
        ],
        [
          "at",
          "ed"
        ],
        [
          "it",
          "ion"
        ],
        [
          "▁",
          "좋"
        ],
        [
          "▁아",
          "니"
        ],
        [
          "▁re",
          "s"
        ],
        [
          "▁",
          "물"
        ],
        [
          "出",
          "来"
        ],
        [
          "▁생",
          "각"
        ],
        [
          "1",
          "1"
        ],
        [
          "自",
          "然"
        ],
        [
          "▁wh",
          "ich"
        ],
        [
          "▁때",
          "문"
        ],
        [
          "する",
          "こと"
        ],
        [
          "か",
          "り"
        ],
        [
          "项",
          "目"
        ],
        [
          "。",
          "在"
        ],
        [
          "a",
          "ct"
        ],
        [
          "で",
          "ある"
        ],
        [
          "け",
          "て"
        ],
        [
          "ul",
          "t"
        ],
        [
          "キ",
          "ャ"
        ],
        [
          "に",
          "は、"
        ],
        [
          "▁h",
          "as"
        ],
        [
          "して",
          "、"
        ],
        [
          "▁",
          "요"
        ],
        [
          "ac",
          "k"
        ],
        [
          "▁",
          "남"
        ],
        [
          "治",
          "療"
        ],
        [
          "s",
          "o"
        ],
        [
          "，",
          "有"
        ],
        [
          "▁",
          "Y"
        ],
        [
          "基",
          "本"
        ],
        [
          "上",
          "的"
        ],
        [
          "▁지",
          "난"
        ],
        [
          "▁",
          "8"
        ],
        [
          "▁",
          "프"
        ],
        [
          "ou",
          "s"
        ],
        [
          "已",
          "经"
        ],
        [
          "し",
          "か"
        ],
        [
          "タ",
          "イ"
        ],
        [
          "▁1",
          "9"
        ],
        [
          "it",
          "e"
        ],
        [
          "利",
          "息"
        ],
        [
          "，",
          "以"
        ],
        [
          "im",
          "e"
        ],
        [
          "al",
          "ly"
        ],
        [
          "r",
          "y"
        ],
        [
          "g",
          "h"
        ],
        [
          "脱",
          "毛"
        ],
        [
          "分",
          "析"
        ],
        [
          "▁s",
          "o"
        ],
        [
          "하",
          "지"
        ],
        [
          "f",
          "orm"
        ],
        [
          "希",
          "望"
        ],
        [
          "▁an",
          "y"
        ],
        [
          "存",
          "在"
        ],
        [
          "か",
          "な"
        ],
        [
          "▁b",
          "ut"
        ],
        [
          "▁",
          "大"
        ],
        [
          "ver",
          "y"
        ],
        [
          "▁",
          "입"
        ],
        [
          "情",
          "報"
        ],
        [
          "金",
          "融"
        ],
        [
          "an",
          "s"
        ],
        [
          "ど",
          "う"
        ],
        [
          "다",
          "”"
        ],
        [
          "し",
          "く"
        ],
        [
          "▁a",
          "pp"
        ],
        [
          "▁m",
          "ore"
        ],
        [
          "人",
          "民"
        ],
        [
          "”",
          "，"
        ],
        [
          "▁o",
          "ut"
        ],
        [
          "相",
          "關"
        ],
        [
          "現",
          "金"
        ],
        [
          "2",
          "1"
        ],
        [
          "en",
          "ce"
        ],
        [
          "▁m",
          "an"
        ],
        [
          "▁",
          "두"
        ],
        [
          "”",
          "的"
        ],
        [
          "こ",
          "ろ"
        ],
        [
          "。",
          "这"
        ],
        [
          "需",
          "求"
        ],
        [
          "▁",
          "J"
        ],
        [
          "리",
          "고"
        ],
        [
          "身",
          "分"
        ],
        [
          "들",
          "을"
        ],
        [
          "▁한",
          "국"
        ],
        [
          "作",
          "用"
        ],
        [
          "什",
          "麼"
        ],
        [
          "平",
          "台"
        ],
        [
          "車",
          "貸"
        ],
        [
          "貸款",
          "率"
        ],
        [
          "c",
          "l"
        ],
        [
          "▁",
          "직"
        ],
        [
          "大",
          "学"
        ],
        [
          "精",
          "神"
        ],
        [
          "e",
          "re"
        ],
        [
          "i",
          "a"
        ],
        [
          "フ",
          "ォ"
        ],
        [
          "サ",
          "ー"
        ],
        [
          "現",
          "在"
        ],
        [
          "▁",
          "中"
        ],
        [
          "▁",
          "평"
        ],
        [
          "▁c",
          "l"
        ],
        [
          "情",
          "况"
        ],
        [
          "一",
          "定"
        ],
        [
          "他",
          "們"
        ],
        [
          "と",
          "言"
        ],
        [
          "i",
          "re"
        ],
        [
          "注",
          "意"
        ],
        [
          "a",
          "ce"
        ],
        [
          "屏",
          "東"
        ],
        [
          "▁",
          "「"
        ],
        [
          "協",
          "商"
        ],
        [
          "e",
          "ar"
        ],
        [
          "▁o",
          "ther"
        ],
        [
          "oo",
          "d"
        ],
        [
          "▁",
          "산"
        ],
        [
          "t",
          "d"
        ],
        [
          "现",
          "在"
        ],
        [
          "▁",
          "파"
        ],
        [
          "▁",
          "피"
        ],
        [
          "▁",
          "올"
        ],
        [
          "活",
          "动"
        ],
        [
          "es",
          ","
        ],
        [
          "地",
          "方"
        ],
        [
          "ve",
          "l"
        ],
        [
          "目",
          "前"
        ],
        [
          "er",
          "v"
        ],
        [
          "で",
          "は、"
        ],
        [
          "▁o",
          "ur"
        ],
        [
          "作",
          "为"
        ],
        [
          "って",
          "、"
        ],
        [
          "具",
          "有"
        ],
        [
          "▁L",
          "td"
        ],
        [
          "多",
          "く"
        ],
        [
          "w",
          "w"
        ],
        [
          "设",
          "计"
        ],
        [
          "の",
          "が"
        ],
        [
          "身分",
          "證"
        ],
        [
          "推",
          "薦"
        ],
        [
          "提",
          "高"
        ],
        [
          "也",
          "是"
        ],
        [
          "でき",
          "ます。"
        ],
        [
          "▁위",
          "한"
        ],
        [
          "组",
          "织"
        ],
        [
          "上",
          "，"
        ],
        [
          "▁u",
          "p"
        ],
        [
          "来",
          "，"
        ],
        [
          "▁",
          "변"
        ],
        [
          "▁d",
          "is"
        ],
        [
          "一",
          "些"
        ],
        [
          "な",
          "が"
        ],
        [
          "▁",
          "출"
        ],
        [
          "e",
          "p"
        ],
        [
          "▁따",
          "라"
        ],
        [
          "一",
          "般"
        ],
        [
          "▁",
          "새"
        ],
        [
          "ー",
          "ン"
        ],
        [
          "提",
          "出"
        ],
        [
          "サイ",
          "ト"
        ],
        [
          "費",
          "用"
        ],
        [
          "合",
          "作"
        ],
        [
          "影",
          "响"
        ],
        [
          "a",
          "il"
        ],
        [
          "行",
          "业"
        ],
        [
          "▁",
          "不"
        ],
        [
          "▁",
          "9"
        ],
        [
          "는",
          "데"
        ],
        [
          "▁함",
          "께"
        ],
        [
          "され",
          "る"
        ],
        [
          "感",
          "じ"
        ],
        [
          "め",
          "る"
        ],
        [
          "도",
          "록"
        ],
        [
          "成",
          "为"
        ],
        [
          "时",
          "候"
        ],
        [
          "さ",
          "せ"
        ],
        [
          "▁",
          "목"
        ],
        [
          "▁필",
          "요"
        ],
        [
          "re",
          "at"
        ],
        [
          "▁",
          "청"
        ],
        [
          "こと",
          "を"
        ],
        [
          "ス",
          "テ"
        ],
        [
          "効",
          "果"
        ],
        [
          "不",
          "可"
        ],
        [
          "他",
          "的"
        ],
        [
          "es",
          "."
        ],
        [
          "台",
          "灣"
        ],
        [
          "っ",
          "と"
        ],
        [
          "▁",
          "못"
        ],
        [
          "数",
          "据"
        ],
        [
          "2",
          "2"
        ],
        [
          "因",
          "此"
        ],
        [
          "▁",
          "열"
        ],
        [
          "u",
          "b"
        ],
        [
          "보",
          "험"
        ],
        [
          "▁u",
          "n"
        ],
        [
          "▁p",
          "art"
        ],
        [
          "融",
          "資"
        ],
        [
          "證",
          "件"
        ],
        [
          "专",
          "业"
        ],
        [
          "▁im",
          "p"
        ],
        [
          "▁",
          "살"
        ],
        [
          "，",
          "就"
        ],
        [
          "ク",
          "リ"
        ],
        [
          "된",
          "다."
        ],
        [
          "から",
          "、"
        ],
        [
          "▁",
          "달"
        ],
        [
          "と",
          "な"
        ],
        [
          "制",
          "度"
        ],
        [
          "と",
          "ころ"
        ],
        [
          "学",
          "习"
        ],
        [
          "原",
          "因"
        ],
        [
          "や",
          "す"
        ],
        [
          "ので",
          "す"
        ],
        [
          "a",
          "ch"
        ],
        [
          "▁대",
          "해"
        ],
        [
          "▁",
          "치"
        ],
        [
          "as",
          "e"
        ],
        [
          "기",
          "를"
        ],
        [
          "라",
          "고"
        ],
        [
          "▁그",
          "러"
        ],
        [
          "を",
          "見"
        ],
        [
          "的",
          "に"
        ],
        [
          "▁",
          "有"
        ],
        [
          "해",
          "야"
        ],
        [
          "环",
          "境"
        ],
        [
          "▁",
          "증"
        ],
        [
          "プ",
          "ロ"
        ],
        [
          "功",
          "能"
        ],
        [
          "因",
          "為"
        ],
        [
          "され",
          "た"
        ],
        [
          "技",
          "術"
        ],
        [
          "1",
          "5"
        ],
        [
          "這",
          "個"
        ],
        [
          "主",
          "义"
        ],
        [
          "▁지",
          "역"
        ],
        [
          "，",
          "对"
        ],
        [
          "した",
          "。"
        ],
        [
          "我",
          "的"
        ],
        [
          "▁",
          "본"
        ],
        [
          "▁",
          "간"
        ],
        [
          "i",
          "ke"
        ],
        [
          "▁",
          "심"
        ],
        [
          "学",
          "校"
        ],
        [
          "▁al",
          "so"
        ],
        [
          "い",
          "く"
        ],
        [
          "勞",
          "工"
        ],
        [
          "▁on",
          "e"
        ],
        [
          "▁",
          "높"
        ],
        [
          "科",
          "技"
        ],
        [
          "ュ",
          "ー"
        ],
        [
          "▁wh",
          "o"
        ],
        [
          "产",
          "业"
        ],
        [
          "创",
          "新"
        ],
        [
          "成",
          "功"
        ],
        [
          "な",
          "ん"
        ],
        [
          "全",
          "国"
        ],
        [
          "業",
          "者"
        ],
        [
          "▁",
          "환"
        ],
        [
          "设",
          "备"
        ],
        [
          "实",
          "现"
        ],
        [
          "20",
          "0"
        ],
        [
          "と",
          "は"
        ],
        [
          "▁",
          "점"
        ],
        [
          "第",
          "二"
        ],
        [
          "▁문",
          "제"
        ],
        [
          "ます",
          "が、"
        ],
        [
          "ation",
          "s"
        ],
        [
          "ar",
          "y"
        ],
        [
          ")",
          ","
        ],
        [
          "多",
          "い"
        ],
        [
          "▁",
          "V"
        ],
        [
          "美",
          "国"
        ],
        [
          "”",
          "。"
        ],
        [
          "ou",
          "nt"
        ],
        [
          "，",
          "那"
        ],
        [
          "良",
          "い"
        ],
        [
          "の",
          "中"
        ],
        [
          "▁",
          "집"
        ],
        [
          "手",
          "術"
        ],
        [
          "，",
          "为"
        ],
        [
          "▁개",
          "인"
        ],
        [
          "会",
          "社"
        ],
        [
          "▁",
          "코"
        ],
        [
          "▁wor",
          "k"
        ],
        [
          "直",
          "接"
        ],
        [
          "の",
          "方"
        ],
        [
          "包",
          "括"
        ],
        [
          "完",
          "成"
        ],
        [
          "だ",
          "った"
        ],
        [
          "re",
          "e"
        ],
        [
          "▁",
          "명"
        ],
        [
          "大",
          "き"
        ],
        [
          "方",
          "案"
        ],
        [
          "▁",
          "qu"
        ],
        [
          "ください",
          "。"
        ],
        [
          "青年",
          "創業"
        ],
        [
          "▁것",
          "이다."
        ],
        [
          "▁",
          "新"
        ],
        [
          "ウ",
          "ン"
        ],
        [
          "이",
          "나"
        ],
        [
          "代",
          "表"
        ],
        [
          "에서",
          "는"
        ],
        [
          "了",
          "解"
        ],
        [
          "城",
          "市"
        ],
        [
          "政",
          "策"
        ],
        [
          "▁",
          "금"
        ],
        [
          "の",
          "お"
        ],
        [
          "▁지",
          "원"
        ],
        [
          "国",
          "际"
        ],
        [
          "▁p",
          "er"
        ],
        [
          "孩",
          "子"
        ],
        [
          "▁t",
          "e"
        ],
        [
          "▁",
          "종"
        ],
        [
          "▁e",
          "v"
        ],
        [
          "任",
          "何"
        ],
        [
          "て",
          "も"
        ],
        [
          "开",
          "始"
        ],
        [
          "下",
          "，"
        ],
        [
          "期",
          "間"
        ],
        [
          "质",
          "量"
        ],
        [
          "ar",
          "k"
        ],
        [
          "▁",
          "외"
        ],
        [
          "a",
          "v"
        ],
        [
          "貸款率",
          "利"
        ],
        [
          "▁진",
          "행"
        ],
        [
          "た",
          "ち"
        ],
        [
          "政",
          "治"
        ],
        [
          "バ",
          "ー"
        ],
        [
          "▁t",
          "ime"
        ],
        [
          "되",
          "는"
        ],
        [
          "▁of",
          "f"
        ],
        [
          "▁S",
          "t"
        ],
        [
          "，",
          "你"
        ],
        [
          "澎",
          "湖"
        ],
        [
          "環",
          "境"
        ],
        [
          "i",
          "le"
        ],
        [
          "完",
          "全"
        ],
        [
          "朋",
          "友"
        ],
        [
          "か",
          "。"
        ],
        [
          "▁I",
          "t"
        ],
        [
          "1",
          "8"
        ],
        [
          "res",
          "s"
        ],
        [
          "—",
          "—"
        ],
        [
          "人",
          "员"
        ],
        [
          "▁g",
          "o"
        ],
        [
          "台",
          "南"
        ],
        [
          "▁",
          "초"
        ],
        [
          "花",
          "蓮"
        ],
        [
          "▁",
          "양"
        ],
        [
          "看",
          "到"
        ],
        [
          "▁",
          "화"
        ],
        [
          "▁m",
          "ay"
        ],
        [
          "u",
          "e"
        ],
        [
          "▁t",
          "ra"
        ],
        [
          "▁가",
          "능"
        ],
        [
          "なが",
          "ら"
        ],
        [
          ".",
          "com"
        ],
        [
          "プ",
          "リ"
        ],
        [
          "라",
          "는"
        ],
        [
          "▁f",
          "e"
        ],
        [
          "▁",
          "데"
        ],
        [
          "▁",
          "체"
        ],
        [
          "▁",
          "밝"
        ],
        [
          "▁것",
          "은"
        ],
        [
          "o",
          "b"
        ],
        [
          "があり",
          "ます。"
        ],
        [
          "ち",
          "ゃ"
        ],
        [
          "カ",
          "ー"
        ],
        [
          "a",
          "u"
        ],
        [
          "と",
          "き"
        ],
        [
          "▁ab",
          "out"
        ],
        [
          "安",
          "心"
        ],
        [
          "支",
          "持"
        ],
        [
          "에",
          "도"
        ],
        [
          "購",
          "屋"
        ],
        [
          "但",
          "是"
        ],
        [
          "▁",
          "잘"
        ],
        [
          "バイ",
          "ク"
        ],
        [
          "更",
          "多"
        ],
        [
          "提",
          "升"
        ],
        [
          "am",
          "e"
        ],
        [
          "▁다",
          "른"
        ],
        [
          "▁시",
          "작"
        ],
        [
          "シ",
          "ャ"
        ],
        [
          "負",
          "債"
        ],
        [
          "▁것",
          "을"
        ],
        [
          "▁많",
          "은"
        ],
        [
          "▁자",
          "신"
        ],
        [
          "▁the",
          "m"
        ],
        [
          "仕",
          "事"
        ],
        [
          "▁",
          "맞"
        ],
        [
          "▁Th",
          "is"
        ],
        [
          "ら",
          "れる"
        ],
        [
          "材",
          "料"
        ],
        [
          "諮詢",
          "服務"
        ],
        [
          "l",
          "l"
        ],
        [
          "o",
          "se"
        ],
        [
          "ion",
          "s"
        ],
        [
          "ら",
          "れ"
        ],
        [
          "or",
          "d"
        ],
        [
          "，",
          "其"
        ],
        [
          "て",
          "、"
        ],
        [
          "多",
          "少"
        ],
        [
          "レ",
          "ス"
        ],
        [
          "▁",
          "투"
        ],
        [
          "した",
          "い"
        ],
        [
          "es",
          "ign"
        ],
        [
          "ス",
          "タ"
        ],
        [
          "人",
          "気"
        ],
        [
          "▁다",
          "양"
        ],
        [
          "as",
          "s"
        ],
        [
          "▁같",
          "은"
        ],
        [
          "的",
          "“"
        ],
        [
          "n",
          "g"
        ],
        [
          "一",
          "次"
        ],
        [
          "▁",
          "각"
        ],
        [
          "▁",
          "게"
        ],
        [
          "▁사",
          "업"
        ],
        [
          "投",
          "资"
        ],
        [
          "にな",
          "って"
        ],
        [
          "▁이",
          "번"
        ],
        [
          "相",
          "关"
        ],
        [
          "▁the",
          "re"
        ],
        [
          "还",
          "是"
        ],
        [
          "▁a",
          "g"
        ],
        [
          "다",
          "면"
        ],
        [
          "▁pro",
          "v"
        ],
        [
          "▁가",
          "장"
        ],
        [
          "無",
          "料"
        ],
        [
          "过",
          "程"
        ],
        [
          "，",
          "我们"
        ],
        [
          "小額",
          "信貸"
        ],
        [
          "▁a",
          "r"
        ],
        [
          "▁한",
          "다."
        ],
        [
          "▁",
          "앞"
        ],
        [
          "二",
          "十"
        ],
        [
          "▁",
          "임"
        ],
        [
          "选",
          "择"
        ],
        [
          "基",
          "础"
        ],
        [
          "建",
          "立"
        ],
        [
          "コ",
          "ミ"
        ],
        [
          "料",
          "金"
        ],
        [
          "を",
          "行"
        ],
        [
          "▁m",
          "y"
        ],
        [
          "と思",
          "います。"
        ],
        [
          "求",
          "人"
        ],
        [
          "▁것",
          "으로"
        ],
        [
          "して",
          "います。"
        ],
        [
          "して",
          "お"
        ],
        [
          "或",
          "者"
        ],
        [
          "合",
          "法"
        ],
        [
          "科",
          "学"
        ],
        [
          "も",
          "し"
        ],
        [
          "▁",
          "약"
        ],
        [
          "하",
          "면"
        ],
        [
          "效",
          "果"
        ],
        [
          "と",
          "の"
        ],
        [
          "2",
          "4"
        ],
        [
          "今",
          "天"
        ],
        [
          "なく",
          "、"
        ],
        [
          "一",
          "起"
        ],
        [
          "u",
          "al"
        ],
        [
          "で",
          "の"
        ],
        [
          "▁",
          "是"
        ],
        [
          "一",
          "步"
        ],
        [
          "男",
          "性"
        ],
        [
          "解",
          "決"
        ],
        [
          "能",
          "够"
        ],
        [
          "怎",
          "麼"
        ],
        [
          "이라",
          "고"
        ],
        [
          "以",
          "下"
        ],
        [
          "しま",
          "う"
        ],
        [
          "▁제",
          "공"
        ],
        [
          "的",
          ","
        ],
        [
          "只",
          "是"
        ],
        [
          "人",
          "，"
        ],
        [
          "▁",
          "if"
        ],
        [
          "的",
          "事"
        ],
        [
          "▁있",
          "어"
        ],
        [
          "先",
          "生"
        ],
        [
          "▁모",
          "든"
        ],
        [
          "貸款",
          "利率"
        ],
        [
          "▁",
          "처"
        ],
        [
          "紹",
          "介"
        ],
        [
          "ち",
          "ら"
        ],
        [
          "1",
          "."
        ],
        [
          "▁com",
          "m"
        ],
        [
          "nd",
          "er"
        ],
        [
          "en",
          "s"
        ],
        [
          "▁s",
          "ome"
        ],
        [
          "法",
          "律"
        ],
        [
          "n",
          "e"
        ],
        [
          "也",
          "不"
        ],
        [
          "▁a",
          "cc"
        ],
        [
          "控",
          "制"
        ],
        [
          "▁사",
          "회"
        ],
        [
          "ー",
          "ク"
        ],
        [
          "ため",
          "、"
        ],
        [
          "▁ne",
          "ed"
        ],
        [
          "によ",
          "って"
        ],
        [
          "说",
          "，"
        ],
        [
          "全",
          "面"
        ],
        [
          "新",
          "的"
        ],
        [
          "リ",
          "ア"
        ],
        [
          "n",
          "ow"
        ],
        [
          "▁W",
          "e"
        ],
        [
          "였",
          "다."
        ],
        [
          "▁",
          "박"
        ],
        [
          "レ",
          "ー"
        ],
        [
          "」",
          "と"
        ],
        [
          "▁p",
          "re"
        ],
        [
          "ん",
          "だ"
        ],
        [
          "▁",
          "충"
        ],
        [
          "今",
          "年"
        ],
        [
          "保",
          "障"
        ],
        [
          "▁프",
          "로"
        ],
        [
          "▁",
          "속"
        ],
        [
          "▁p",
          "e"
        ],
        [
          "성",
          "을"
        ],
        [
          "你",
          "的"
        ],
        [
          "ter",
          "n"
        ],
        [
          "an",
          "g"
        ],
        [
          "する",
          "ことが"
        ],
        [
          "▁",
          "총"
        ],
        [
          "形",
          "成"
        ],
        [
          "す",
          "す"
        ],
        [
          "这",
          "些"
        ],
        [
          "▁",
          "민"
        ],
        [
          "中",
          "央"
        ],
        [
          "改",
          "革"
        ],
        [
          "など",
          "の"
        ],
        [
          "ら",
          "い"
        ],
        [
          "条",
          "件"
        ],
        [
          "わ",
          "せ"
        ],
        [
          "あり",
          "ます。"
        ],
        [
          "하고",
          ","
        ],
        [
          "▁",
          "농"
        ],
        [
          "an",
          "c"
        ],
        [
          "사",
          "를"
        ],
        [
          "▁C",
          "h"
        ],
        [
          "这",
          "样"
        ],
        [
          "に",
          "対"
        ],
        [
          "南",
          "投"
        ],
        [
          "▁만",
          "들"
        ],
        [
          "장",
          "은"
        ],
        [
          "れば",
          "、"
        ],
        [
          "▁",
          "법"
        ],
        [
          "历",
          "史"
        ],
        [
          "▁C",
          "on"
        ],
        [
          "一",
          "切"
        ],
        [
          "ビ",
          "ス"
        ],
        [
          "b",
          "er"
        ],
        [
          "引",
          "越"
        ],
        [
          "裝",
          "修"
        ],
        [
          "▁그",
          "리고"
        ],
        [
          "开",
          "展"
        ],
        [
          "甚",
          "至"
        ],
        [
          "程",
          "度"
        ],
        [
          "有",
          "限"
        ],
        [
          "青年創業",
          "貸款"
        ],
        [
          "根",
          "据"
        ],
        [
          "り",
          "の"
        ],
        [
          "▁이",
          "상"
        ],
        [
          "6",
          "0"
        ],
        [
          "▁in",
          "d"
        ],
        [
          "地",
          "下"
        ],
        [
          "針",
          "對"
        ],
        [
          "資",
          "金"
        ],
        [
          "有",
          "效"
        ],
        [
          "すす",
          "め"
        ],
        [
          "者",
          ","
        ],
        [
          "标",
          "准"
        ],
        [
          "十",
          "分"
        ],
        [
          "비",
          "스"
        ],
        [
          "基",
          "隆"
        ],
        [
          "台",
          "東"
        ],
        [
          "化",
          "的"
        ],
        [
          "購",
          "入"
        ],
        [
          "北",
          "京"
        ],
        [
          "▁관",
          "련"
        ],
        [
          "活",
          "動"
        ],
        [
          "必",
          "须"
        ],
        [
          "用",
          "户"
        ],
        [
          "同",
          "时"
        ],
        [
          "지",
          "는"
        ],
        [
          "の",
          "です。"
        ],
        [
          "关",
          "系"
        ],
        [
          "的",
          "大"
        ],
        [
          "▁h",
          "is"
        ],
        [
          "，",
          "从"
        ],
        [
          "▁또",
          "한"
        ],
        [
          "▁교",
          "육"
        ],
        [
          "思",
          "想"
        ],
        [
          "거",
          "나"
        ],
        [
          "▁때문",
          "에"
        ],
        [
          "니",
          "다"
        ],
        [
          "it",
          "ed"
        ],
        [
          ",",
          "以"
        ],
        [
          "c",
          "k"
        ],
        [
          "な",
          "た"
        ],
        [
          "で",
          "しょう。"
        ],
        [
          "・",
          "・"
        ],
        [
          "▁",
          ":"
        ],
        [
          "ス",
          "ク"
        ],
        [
          "il",
          "d"
        ],
        [
          "只",
          "有"
        ],
        [
          "サー",
          "ビス"
        ],
        [
          "銀行",
          "信貸"
        ],
        [
          "正",
          "在"
        ],
        [
          "in",
          "t"
        ],
        [
          "▁",
          "판"
        ],
        [
          "持",
          "ち"
        ],
        [
          "を",
          "、"
        ],
        [
          "at",
          "er"
        ],
        [
          "▁다양",
          "한"
        ],
        [
          "結",
          "果"
        ],
        [
          "ない",
          "。"
        ],
        [
          "▁시",
          "간"
        ],
        [
          "客",
          "戶"
        ],
        [
          "▁l",
          "ike"
        ],
        [
          "▁be",
          "en"
        ],
        [
          "に",
          "関"
        ],
        [
          "▁",
          "손"
        ],
        [
          "▁whe",
          "n"
        ],
        [
          "보",
          "다"
        ],
        [
          "at",
          "ing"
        ],
        [
          "▁",
          "온"
        ],
        [
          "▁",
          "협"
        ],
        [
          "▁con",
          "s"
        ],
        [
          "▁기",
          "자"
        ],
        [
          "增",
          "加"
        ],
        [
          "▁",
          "찾"
        ],
        [
          "出",
          "现"
        ],
        [
          "ラ",
          "ー"
        ],
        [
          "网",
          "络"
        ],
        [
          "리",
          "를"
        ],
        [
          "ろ",
          "う"
        ],
        [
          "容",
          "易"
        ],
        [
          "高",
          "い"
        ],
        [
          "2",
          "5"
        ],
        [
          "當",
          "鋪"
        ],
        [
          "资",
          "源"
        ],
        [
          "イ",
          "ル"
        ],
        [
          "▁하나",
          "님"
        ],
        [
          "▁it",
          "s"
        ],
        [
          "家",
          "庭"
        ],
        [
          "怎",
          "么"
        ],
        [
          "国",
          "内"
        ],
        [
          "▁들",
          "어"
        ],
        [
          "参",
          "加"
        ],
        [
          "▁있",
          "으"
        ],
        [
          "開",
          "始"
        ],
        [
          "已",
          "經"
        ],
        [
          "あ",
          "なた"
        ],
        [
          "1",
          "00"
        ],
        [
          "or",
          "s"
        ],
        [
          "l",
          "ic"
        ],
        [
          "您",
          "的"
        ],
        [
          "▁",
          "검"
        ],
        [
          "▁",
          "번"
        ],
        [
          "こと",
          "は"
        ],
        [
          "4",
          "0"
        ],
        [
          "▁g",
          "et"
        ],
        [
          "全",
          "球"
        ],
        [
          "▁we",
          "re"
        ],
        [
          "i",
          "ent"
        ],
        [
          "を",
          "受"
        ],
        [
          "处",
          "理"
        ],
        [
          "ほ",
          "ど"
        ],
        [
          "這",
          "樣"
        ],
        [
          "들",
          "에게"
        ],
        [
          "な",
          "かった"
        ],
        [
          "is",
          "h"
        ],
        [
          "と",
          "も"
        ],
        [
          "t",
          "e"
        ],
        [
          "購屋",
          "優惠"
        ],
        [
          "▁w",
          "ould"
        ],
        [
          "解",
          "决"
        ],
        [
          "學",
          "生"
        ],
        [
          "对",
          "于"
        ],
        [
          "认",
          "为"
        ],
        [
          "人",
          "の"
        ],
        [
          "▁",
          "업"
        ],
        [
          "▁h",
          "ad"
        ],
        [
          "▁가",
          "지"
        ],
        [
          "个",
          "人"
        ],
        [
          "리",
          "는"
        ],
        [
          "▁중",
          "요"
        ],
        [
          "▁o",
          "ver"
        ],
        [
          "包",
          "茎"
        ],
        [
          "o",
          "v"
        ],
        [
          "'",
          "s"
        ],
        [
          "▁wh",
          "at"
        ],
        [
          "领",
          "导"
        ],
        [
          "▁",
          "本"
        ],
        [
          "▁",
          "복"
        ],
        [
          "▁",
          "표"
        ],
        [
          "に",
          "入"
        ],
        [
          "チ",
          "ャ"
        ],
        [
          "フ",
          "ィ"
        ],
        [
          "▁t",
          "r"
        ],
        [
          "斗",
          "六"
        ],
        [
          "のです",
          "が、"
        ],
        [
          "有",
          "一"
        ],
        [
          "y",
          ","
        ],
        [
          "▁",
          "人"
        ],
        [
          "査",
          "定"
        ],
        [
          "▁the",
          "se"
        ],
        [
          "自",
          "身"
        ],
        [
          "▁",
          "ro"
        ],
        [
          "▁그",
          "런"
        ],
        [
          "最",
          "低"
        ],
        [
          "▁h",
          "ow"
        ],
        [
          "第",
          "三"
        ],
        [
          "こと",
          "も"
        ],
        [
          "して",
          "も"
        ],
        [
          "時",
          "候"
        ],
        [
          "1",
          "6"
        ],
        [
          "▁보",
          "험"
        ],
        [
          "作",
          "品"
        ],
        [
          "年",
          "，"
        ],
        [
          "op",
          "le"
        ],
        [
          "▁세",
          "계"
        ],
        [
          "い",
          "う"
        ],
        [
          "考",
          "え"
        ],
        [
          "確",
          "認"
        ],
        [
          "レ",
          "ン"
        ],
        [
          "2",
          "."
        ],
        [
          "▁아",
          "이"
        ],
        [
          "体",
          "系"
        ],
        [
          "应",
          "用"
        ],
        [
          "▁e",
          "m"
        ],
        [
          "▁",
          "（"
        ],
        [
          "加",
          "强"
        ],
        [
          "d",
          "ition"
        ],
        [
          "대",
          "로"
        ],
        [
          "諮詢服務",
          "."
        ],
        [
          "▁",
          "드"
        ],
        [
          "▁",
          "근"
        ],
        [
          "자",
          "가"
        ],
        [
          "1",
          "3"
        ],
        [
          "发",
          "现"
        ],
        [
          "最",
          "大"
        ],
        [
          "最",
          "高"
        ],
        [
          "기",
          "도"
        ],
        [
          "▁a",
          "m"
        ],
        [
          "品",
          "質"
        ],
        [
          "理",
          "解"
        ],
        [
          "パ",
          "ー"
        ],
        [
          "▁s",
          "c"
        ],
        [
          "ア",
          "イ"
        ],
        [
          "▁",
          "편"
        ],
        [
          "▁대",
          "표"
        ],
        [
          "：",
          "「"
        ],
        [
          "로",
          "운"
        ],
        [
          "if",
          "f"
        ],
        [
          "影",
          "響"
        ],
        [
          "it",
          "ies"
        ],
        [
          "发",
          "生"
        ],
        [
          "혔",
          "다."
        ],
        [
          "▁",
          "台北"
        ],
        [
          "▁",
          "식"
        ],
        [
          "水",
          "平"
        ],
        [
          "マ",
          "ン"
        ],
        [
          "部",
          "门"
        ],
        [
          "▁int",
          "o"
        ],
        [
          "▁",
          "채"
        ],
        [
          "消",
          "费"
        ],
        [
          "推",
          "进"
        ],
        [
          "あ",
          "った"
        ],
        [
          "ol",
          "d"
        ],
        [
          "一",
          "直"
        ],
        [
          "，",
          "还"
        ],
        [
          "自",
          "由"
        ],
        [
          "if",
          "ic"
        ],
        [
          "is",
          "e"
        ],
        [
          "く",
          "な"
        ],
        [
          "in",
          "k"
        ],
        [
          "▁",
          "했"
        ],
        [
          "進",
          "行"
        ],
        [
          "游",
          "戏"
        ],
        [
          "ネ",
          "ット"
        ],
        [
          "か",
          "、"
        ],
        [
          "へ",
          "の"
        ],
        [
          "不",
          "要"
        ],
        [
          "▁",
          "크"
        ],
        [
          "▁C",
          "o"
        ],
        [
          "il",
          "ity"
        ],
        [
          "자",
          "는"
        ],
        [
          "由",
          "于"
        ],
        [
          "c",
          "ess"
        ],
        [
          "en",
          "c"
        ],
        [
          "되",
          "어"
        ],
        [
          "▁연",
          "구"
        ],
        [
          "▁이",
          "용"
        ],
        [
          "努",
          "力"
        ],
        [
          "le",
          "ct"
        ],
        [
          "市",
          "場"
        ],
        [
          "降",
          "低"
        ],
        [
          "取",
          "得"
        ],
        [
          "하",
          "며"
        ],
        [
          "，",
          "“"
        ],
        [
          "年",
          "的"
        ],
        [
          "▁",
          "책"
        ],
        [
          "して",
          "い"
        ],
        [
          "▁",
          "上"
        ],
        [
          "改",
          "善"
        ],
        [
          "模",
          "式"
        ],
        [
          "y",
          "."
        ],
        [
          "기",
          "에"
        ],
        [
          "▁ne",
          "w"
        ],
        [
          "管",
          "道"
        ],
        [
          "▁상",
          "황"
        ],
        [
          "客",
          "户"
        ],
        [
          "電",
          "話"
        ],
        [
          "1",
          "4"
        ],
        [
          "▁u",
          "nder"
        ],
        [
          "患",
          "者"
        ],
        [
          "ing",
          ","
        ],
        [
          "を",
          "使"
        ],
        [
          "にな",
          "り"
        ],
        [
          "2",
          "3"
        ],
        [
          "されて",
          "いる"
        ],
        [
          "력",
          "을"
        ],
        [
          "ic",
          "k"
        ],
        [
          "操",
          "作"
        ],
        [
          "▁",
          "형"
        ],
        [
          "設",
          "備"
        ],
        [
          "の",
          "は、"
        ],
        [
          "系",
          "列"
        ],
        [
          "▁re",
          "l"
        ],
        [
          "▁su",
          "ch"
        ],
        [
          "ブ",
          "ル"
        ],
        [
          "產",
          "品"
        ],
        [
          "지",
          "를"
        ],
        [
          "，但",
          "是"
        ],
        [
          "また",
          "、"
        ],
        [
          "▁",
          "취"
        ],
        [
          "▁",
          "에"
        ],
        [
          "を",
          "お"
        ],
        [
          "o",
          "ve"
        ],
        [
          "ア",
          "ル"
        ],
        [
          "ing",
          "s"
        ],
        [
          "不",
          "得"
        ],
        [
          "合",
          "わせ"
        ],
        [
          "장",
          "을"
        ],
        [
          "▁",
          "준"
        ],
        [
          "方",
          "便"
        ],
        [
          "▁",
          "호"
        ],
        [
          "서",
          "는"
        ],
        [
          "▁서",
          "울"
        ],
        [
          "▁",
          "독"
        ],
        [
          "▁u",
          "se"
        ],
        [
          "j",
          "ect"
        ],
        [
          "1",
          "7"
        ],
        [
          "計",
          "算"
        ],
        [
          "れて",
          "いる"
        ],
        [
          "智",
          "能"
        ],
        [
          "如",
          "此"
        ],
        [
          "▁b",
          "et"
        ],
        [
          "▁",
          "리"
        ],
        [
          "▁",
          "누"
        ],
        [
          "▁",
          "창"
        ],
        [
          "週",
          "轉"
        ],
        [
          "いた",
          "だ"
        ],
        [
          "▁운",
          "영"
        ],
        [
          "プ",
          "レ"
        ],
        [
          "▁",
          "큰"
        ],
        [
          "哪",
          "裡"
        ],
        [
          "l",
          "p"
        ],
        [
          "▁",
          "질"
        ],
        [
          "a",
          "w"
        ],
        [
          "▁",
          "규"
        ],
        [
          "▁기",
          "업"
        ],
        [
          "l",
          "ow"
        ],
        [
          "i",
          "an"
        ],
        [
          "▁A",
          "s"
        ],
        [
          "セ",
          "ン"
        ],
        [
          "ay",
          "s"
        ],
        [
          "地",
          "区"
        ],
        [
          "。",
          "我"
        ],
        [
          "人",
          "が"
        ],
        [
          "▁th",
          "an"
        ],
        [
          "▁밝",
          "혔다."
        ],
        [
          "ers",
          "on"
        ],
        [
          "I",
          "N"
        ],
        [
          "ダ",
          "イ"
        ],
        [
          "▁",
          "&"
        ],
        [
          "▁re",
          "g"
        ],
        [
          "▁",
          "완"
        ],
        [
          "on",
          "d"
        ],
        [
          "票",
          "貼"
        ],
        [
          "才",
          "能"
        ],
        [
          "▁pe",
          "ople"
        ],
        [
          "性",
          "的"
        ],
        [
          "ま",
          "り"
        ],
        [
          "o",
          "y"
        ],
        [
          "選",
          "擇"
        ],
        [
          "的",
          "时候"
        ],
        [
          "机",
          "构"
        ],
        [
          "▁k",
          "now"
        ],
        [
          "위",
          "원"
        ],
        [
          "领",
          "域"
        ],
        [
          "き",
          "た"
        ],
        [
          "共",
          "同"
        ],
        [
          "rou",
          "gh"
        ],
        [
          "网",
          "站"
        ],
        [
          "出",
          "会"
        ],
        [
          "得",
          "到"
        ],
        [
          "最",
          "新"
        ],
        [
          "造",
          "成"
        ],
        [
          "完",
          "善"
        ],
        [
          "f",
          "ul"
        ],
        [
          "▁",
          "언"
        ],
        [
          "▁",
          "這"
        ],
        [
          "是",
          "否"
        ],
        [
          "▁미",
          "국"
        ],
        [
          "免",
          "費"
        ],
        [
          "▁",
          "【"
        ],
        [
          "か",
          "？"
        ],
        [
          "i",
          "ous"
        ],
        [
          "레",
          "이"
        ],
        [
          "▁n",
          "o"
        ],
        [
          "經",
          "驗"
        ],
        [
          "▁",
          "합니다."
        ],
        [
          "▁아니",
          "라"
        ],
        [
          "积",
          "极"
        ],
        [
          "▁20",
          "0"
        ],
        [
          "▁in",
          "s"
        ],
        [
          "上",
          "市"
        ],
        [
          "是",
          "在"
        ],
        [
          "ロ",
          "ン"
        ],
        [
          "时",
          "代"
        ],
        [
          "細",
          "節"
        ],
        [
          "▁s",
          "erv"
        ],
        [
          "责",
          "任"
        ],
        [
          "ロ",
          "ー"
        ],
        [
          "個人",
          "信貸"
        ],
        [
          "し",
          "ました。"
        ],
        [
          "坚",
          "持"
        ],
        [
          "▁",
          "돌"
        ],
        [
          "え",
          "ば"
        ],
        [
          "▁",
          "타"
        ],
        [
          "ッ",
          "チ"
        ],
        [
          "학",
          "교"
        ],
        [
          "▁",
          "될"
        ],
        [
          "比",
          "较"
        ],
        [
          "8",
          "0"
        ],
        [
          "cl",
          "ud"
        ],
        [
          "ア",
          "ップ"
        ],
        [
          "开",
          "发"
        ],
        [
          "▁",
          "0"
        ],
        [
          "価",
          "格"
        ],
        [
          "日",
          "，"
        ],
        [
          "によ",
          "る"
        ],
        [
          "▁",
          "담"
        ],
        [
          "w",
          "n"
        ],
        [
          "았",
          "다."
        ],
        [
          "交",
          "通"
        ],
        [
          "▁a",
          "ct"
        ],
        [
          "r",
          "ic"
        ],
        [
          "結",
          "婚"
        ],
        [
          "消",
          "費"
        ],
        [
          "▁방",
          "법"
        ],
        [
          "，",
          "让"
        ],
        [
          "こ",
          "う"
        ],
        [
          "之",
          "一"
        ],
        [
          "ジ",
          "ャ"
        ],
        [
          "单",
          "位"
        ],
        [
          "er",
          "t"
        ],
        [
          "嘉",
          "義"
        ],
        [
          "を",
          "する"
        ],
        [
          "，",
          "可"
        ],
        [
          "r",
          "it"
        ],
        [
          "获",
          "得"
        ],
        [
          "べ",
          "て"
        ],
        [
          "最",
          "近"
        ],
        [
          "經",
          "營"
        ],
        [
          "▁he",
          "lp"
        ],
        [
          "ra",
          "m"
        ],
        [
          "一",
          "下"
        ],
        [
          "f",
          "t"
        ],
        [
          "됐",
          "다."
        ],
        [
          "交",
          "易"
        ],
        [
          "이라",
          "는"
        ],
        [
          "er",
          "m"
        ],
        [
          "そ",
          "んな"
        ],
        [
          "▁등",
          "을"
        ],
        [
          "こ",
          "こ"
        ],
        [
          "▁",
          "디"
        ],
        [
          ")",
          "."
        ],
        [
          "지만",
          ","
        ],
        [
          "や",
          "、"
        ],
        [
          "▁e",
          "ff"
        ],
        [
          "应",
          "该"
        ],
        [
          "▁기",
          "술"
        ],
        [
          "▁as",
          "s"
        ],
        [
          "▁s",
          "y"
        ],
        [
          "ック",
          "ス"
        ],
        [
          "ra",
          "ct"
        ],
        [
          "ou",
          "nd"
        ],
        [
          "▁발",
          "생"
        ],
        [
          "と",
          "は、"
        ],
        [
          "자",
          "의"
        ],
        [
          "▁d",
          "iff"
        ],
        [
          "사",
          "업"
        ],
        [
          "で",
          "した。"
        ],
        [
          "保",
          "护"
        ],
        [
          "け",
          "ど"
        ],
        [
          "状",
          "態"
        ],
        [
          "▁",
          "お"
        ],
        [
          "こ",
          "ちら"
        ],
        [
          "を",
          "持"
        ],
        [
          "▁",
          "/"
        ],
        [
          "更",
          "加"
        ],
        [
          "って",
          "も"
        ],
        [
          "真",
          "的"
        ],
        [
          "结",
          "构"
        ],
        [
          "よ",
          "く"
        ],
        [
          "▁",
          "광"
        ],
        [
          "工",
          "业"
        ],
        [
          "▁in",
          "v"
        ],
        [
          "▁",
          "–"
        ],
        [
          "▁",
          "걸"
        ],
        [
          "之",
          "前"
        ],
        [
          "처",
          "럼"
        ],
        [
          "▁",
          "하고"
        ],
        [
          "ation",
          "al"
        ],
        [
          "目",
          "的"
        ],
        [
          "이",
          "트"
        ],
        [
          "▁re",
          "p"
        ],
        [
          "▁",
          "너"
        ],
        [
          "▁",
          "된"
        ],
        [
          "相",
          "談"
        ],
        [
          "ment",
          "s"
        ],
        [
          "知",
          "识"
        ],
        [
          "▁1",
          "2"
        ],
        [
          "して",
          "み"
        ],
        [
          "▁",
          "효"
        ],
        [
          "身",
          "份"
        ],
        [
          "目",
          "标"
        ],
        [
          "上",
          "げ"
        ],
        [
          "同",
          "じ"
        ],
        [
          "렇",
          "게"
        ],
        [
          "除",
          "了"
        ],
        [
          "au",
          "se"
        ],
        [
          "各",
          "种"
        ],
        [
          "形",
          "式"
        ],
        [
          "イン",
          "ト"
        ],
        [
          "重",
          "点"
        ],
        [
          "다”",
          "고"
        ],
        [
          "ま",
          "ず"
        ],
        [
          "传",
          "统"
        ],
        [
          "玻",
          "璃"
        ],
        [
          "▁3",
          "0"
        ],
        [
          "施",
          "工"
        ],
        [
          "▁",
          "순"
        ],
        [
          "▁ex",
          "per"
        ],
        [
          "这",
          "种"
        ],
        [
          "推",
          "动"
        ],
        [
          "▁모",
          "두"
        ],
        [
          "었",
          "습니다."
        ],
        [
          "▁m",
          "ake"
        ],
        [
          "정",
          "을"
        ],
        [
          "价",
          "值"
        ],
        [
          "流",
          "程"
        ],
        [
          "そ",
          "こ"
        ],
        [
          "不",
          "断"
        ],
        [
          "核",
          "心"
        ],
        [
          "理",
          "由"
        ],
        [
          "ing",
          "."
        ],
        [
          "▁th",
          "rough"
        ],
        [
          "스",
          "트"
        ],
        [
          "特",
          "色"
        ],
        [
          "▁또",
          "는"
        ],
        [
          "▁",
          "음"
        ],
        [
          "센",
          "터"
        ],
        [
          "酒",
          "店"
        ],
        [
          "▁",
          "줄"
        ],
        [
          "▁",
          "以"
        ],
        [
          "▁대",
          "상"
        ],
        [
          "w",
          "e"
        ],
        [
          "▁정",
          "부"
        ],
        [
          "大",
          "型"
        ],
        [
          "わ",
          "け"
        ],
        [
          "ニ",
          "ック"
        ],
        [
          "有限",
          "公司"
        ],
        [
          "やす",
          "い"
        ],
        [
          "▁여",
          "러"
        ],
        [
          "ご",
          "ざ"
        ],
        [
          "成",
          "立"
        ],
        [
          "▁",
          "메"
        ],
        [
          "只",
          "要"
        ],
        [
          "ver",
          "s"
        ],
        [
          "▁않",
          "는"
        ],
        [
          "▁전",
          "문"
        ],
        [
          "ow",
          "n"
        ],
        [
          "해",
          "서"
        ],
        [
          "计",
          "划"
        ],
        [
          "▁",
          "절"
        ],
        [
          "▁서",
          "비스"
        ],
        [
          "or",
          "y"
        ],
        [
          "▁y",
          "ear"
        ],
        [
          "投",
          "資"
        ],
        [
          "os",
          "s"
        ],
        [
          "サイ",
          "ズ"
        ],
        [
          "資",
          "料"
        ],
        [
          "주",
          "의"
        ],
        [
          "▁",
          "카"
        ],
        [
          "▁사",
          "실"
        ],
        [
          "▁",
          "합"
        ],
        [
          "▁",
          "느"
        ],
        [
          "▁없",
          "는"
        ],
        [
          "ど",
          "の"
        ],
        [
          "价",
          "格"
        ],
        [
          "苗",
          "栗"
        ],
        [
          "分",
          "享"
        ],
        [
          "ig",
          "h"
        ],
        [
          "实",
          "际"
        ],
        [
          "实",
          "施"
        ],
        [
          "錢",
          "莊"
        ],
        [
          "▁on",
          "ly"
        ],
        [
          "화",
          "를"
        ],
        [
          "3",
          "."
        ],
        [
          "er",
          "ing"
        ],
        [
          "▁C",
          "om"
        ],
        [
          "って",
          "います。"
        ],
        [
          "at",
          "es"
        ],
        [
          "保",
          "持"
        ],
        [
          "▁a",
          "c"
        ],
        [
          "▁pro",
          "du"
        ],
        [
          "▁",
          "군"
        ],
        [
          "具",
          "体"
        ],
        [
          "现",
          "代"
        ],
        [
          "▁",
          "힘"
        ],
        [
          "だ",
          "。"
        ],
        [
          "還",
          "款"
        ],
        [
          "▁su",
          "pp"
        ],
        [
          "か",
          "る"
        ],
        [
          "▁",
          "권"
        ],
        [
          "打",
          "造"
        ],
        [
          "地下",
          "錢莊"
        ],
        [
          "▁re",
          "c"
        ],
        [
          "▁결",
          "과"
        ],
        [
          "網",
          "站"
        ],
        [
          "ブ",
          "ラ"
        ],
        [
          "さ",
          "ら"
        ],
        [
          "▁m",
          "ost"
        ],
        [
          "▁이",
          "어"
        ],
        [
          "調",
          "査"
        ],
        [
          "p",
          "ect"
        ],
        [
          "▁j",
          "ust"
        ],
        [
          "という",
          "こと"
        ],
        [
          "。",
          "他"
        ],
        [
          "E",
          "R"
        ],
        [
          "▁지",
          "금"
        ],
        [
          "▁P",
          "ro"
        ],
        [
          "▁Y",
          "ou"
        ],
        [
          "ッ",
          "シ"
        ],
        [
          "▁w",
          "ell"
        ],
        [
          "ポ",
          "イント"
        ],
        [
          "로",
          "나"
        ],
        [
          "▁",
          "三"
        ],
        [
          "普",
          "通"
        ],
        [
          "ナ",
          "ー"
        ],
        [
          "业",
          "务"
        ],
        [
          "天",
          "下"
        ],
        [
          "▁어",
          "떤"
        ],
        [
          "ら",
          "ない"
        ],
        [
          "来",
          "的"
        ],
        [
          "あり",
          "、"
        ],
        [
          "▁이",
          "런"
        ],
        [
          "ol",
          "og"
        ],
        [
          "真",
          "正"
        ],
        [
          "form",
          "ation"
        ],
        [
          "▁",
          "her"
        ],
        [
          "ラ",
          "イン"
        ],
        [
          "▁s",
          "a"
        ],
        [
          "▁관",
          "계"
        ],
        [
          "▁",
          "향"
        ],
        [
          "に",
          "行"
        ],
        [
          "▁",
          "글"
        ],
        [
          "あり",
          "ません。"
        ],
        [
          "，",
          "所以"
        ],
        [
          "201",
          "7"
        ],
        [
          "之",
          "间"
        ],
        [
          "▁",
          "年"
        ],
        [
          "这",
          "一"
        ],
        [
          "優",
          "質"
        ],
        [
          "特",
          "别"
        ],
        [
          "還",
          "是"
        ],
        [
          "中",
          "國"
        ],
        [
          "首",
          "次"
        ],
        [
          "▁",
          "항"
        ],
        [
          "。",
          "“"
        ],
        [
          "生",
          "命"
        ],
        [
          "今",
          "回"
        ],
        [
          "▁참",
          "여"
        ],
        [
          "機",
          "能"
        ],
        [
          "▁",
          "他"
        ],
        [
          "接",
          "受"
        ],
        [
          "ul",
          "ar"
        ],
        [
          "ダ",
          "ー"
        ],
        [
          "he",
          "n"
        ],
        [
          "意",
          "味"
        ],
        [
          "▁",
          "▲"
        ],
        [
          "▁개",
          "발"
        ],
        [
          "an",
          "y"
        ],
        [
          "关",
          "于"
        ],
        [
          "▁",
          "싶"
        ],
        [
          "▁특",
          "히"
        ],
        [
          "楽",
          "し"
        ],
        [
          "い",
          "ました。"
        ],
        [
          "id",
          "ent"
        ],
        [
          "成",
          "本"
        ],
        [
          "最",
          "後"
        ],
        [
          "增",
          "长"
        ],
        [
          "▁sh",
          "ould"
        ],
        [
          "受",
          "到"
        ],
        [
          "▁마",
          "음"
        ],
        [
          "細節",
          "的"
        ],
        [
          "提供",
          "相關"
        ],
        [
          "位",
          "置"
        ],
        [
          ",",
          "而"
        ],
        [
          "进",
          "入"
        ],
        [
          "▁",
          "접"
        ],
        [
          "的",
          "新"
        ],
        [
          "采",
          "用"
        ],
        [
          "方",
          "向"
        ],
        [
          "l",
          "ine"
        ],
        [
          "▁현",
          "재"
        ],
        [
          "▁경",
          "제"
        ],
        [
          "ので",
          "は"
        ],
        [
          "力",
          "量"
        ],
        [
          "t",
          "ing"
        ],
        [
          "実",
          "際"
        ],
        [
          "制",
          "造"
        ],
        [
          "這",
          "些"
        ],
        [
          "根",
          "本"
        ],
        [
          "▁대",
          "출"
        ],
        [
          "st",
          "em"
        ],
        [
          "い",
          "、"
        ],
        [
          "▁",
          "태"
        ],
        [
          "細節的",
          "諮詢服務."
        ],
        [
          "提供相關",
          "細節的諮詢服務."
        ],
        [
          "h",
          "one"
        ],
        [
          "니",
          "까"
        ],
        [
          "有",
          "利"
        ],
        [
          "进",
          "一步"
        ],
        [
          "郵",
          "局"
        ],
        [
          "チ",
          "ェ"
        ],
        [
          "行",
          "政"
        ],
        [
          "A",
          "N"
        ],
        [
          "▁국",
          "가"
        ],
        [
          "出",
          "了"
        ],
        [
          "左",
          "右"
        ],
        [
          "月",
          "子"
        ],
        [
          "もし",
          "れ"
        ],
        [
          "價",
          "格"
        ],
        [
          "く",
          "る"
        ],
        [
          "き",
          "ます。"
        ],
        [
          "虽",
          "然"
        ],
        [
          "起",
          "來"
        ],
        [
          "▁in",
          "clud"
        ],
        [
          "経",
          "験"
        ],
        [
          "ib",
          "le"
        ],
        [
          "vel",
          "op"
        ],
        [
          "se",
          "l"
        ],
        [
          "い",
          "つ"
        ],
        [
          "電",
          "子"
        ],
        [
          "身",
          "体"
        ],
        [
          "n",
          "ing"
        ],
        [
          "都",
          "有"
        ],
        [
          "理",
          "念"
        ],
        [
          "など",
          "、"
        ],
        [
          "▁I",
          "f"
        ],
        [
          "▁다",
          "시"
        ],
        [
          "集",
          "团"
        ],
        [
          "メ",
          "リ"
        ],
        [
          "两",
          "个"
        ],
        [
          "▁많",
          "이"
        ],
        [
          "民",
          "族"
        ],
        [
          "疫",
          "情"
        ],
        [
          "为",
          "了"
        ],
        [
          "，",
          "要"
        ],
        [
          "▁p",
          "erson"
        ],
        [
          "b",
          "s"
        ],
        [
          "기",
          "가"
        ],
        [
          "医",
          "院"
        ],
        [
          "分",
          "期"
        ],
        [
          "撥",
          "款"
        ],
        [
          "いて",
          "、"
        ],
        [
          "ダ",
          "ウン"
        ],
        [
          "发",
          "布"
        ],
        [
          "规",
          "定"
        ],
        [
          "內",
          "容"
        ],
        [
          "at",
          "ive"
        ],
        [
          "▁이",
          "후"
        ],
        [
          "板",
          "橋"
        ],
        [
          "，",
          "使"
        ],
        [
          "经",
          "营"
        ],
        [
          "▁b",
          "l"
        ],
        [
          "-",
          "0"
        ],
        [
          "メ",
          "ン"
        ],
        [
          "ッ",
          "ド"
        ],
        [
          "二胎",
          "房貸"
        ],
        [
          "人",
          "才"
        ],
        [
          "ウ",
          "ェ"
        ],
        [
          "之",
          "後"
        ],
        [
          "住",
          "宅"
        ],
        [
          "関",
          "係"
        ],
        [
          "だけ",
          "で"
        ],
        [
          "▁정",
          "보"
        ],
        [
          "規",
          "劃"
        ],
        [
          "ie",
          "w"
        ],
        [
          "▁계",
          "획"
        ],
        [
          "▁1",
          "."
        ],
        [
          "▁",
          "친"
        ],
        [
          "フ",
          "ェ"
        ],
        [
          "ed",
          "."
        ],
        [
          "▁",
          "・"
        ],
        [
          "那",
          "些"
        ],
        [
          "▁at",
          "t"
        ],
        [
          "行",
          "为"
        ],
        [
          "不",
          "会"
        ],
        [
          "▁",
          "토"
        ],
        [
          "為",
          "您"
        ],
        [
          "f",
          "ter"
        ],
        [
          "▁확",
          "인"
        ],
        [
          "oc",
          "k"
        ],
        [
          "，",
          "大"
        ],
        [
          "十",
          "二"
        ],
        [
          "で",
          "しょう"
        ],
        [
          "少",
          "し"
        ],
        [
          "フ",
          "ト"
        ],
        [
          "）",
          "。"
        ],
        [
          "を",
          "選"
        ],
        [
          "▁c",
          "o"
        ],
        [
          "通",
          "常"
        ],
        [
          "ロ",
          "ード"
        ],
        [
          "東",
          "京"
        ],
        [
          "證件",
          "借錢"
        ],
        [
          "회",
          "의"
        ],
        [
          "됩",
          "니다."
        ],
        [
          "▁그러",
          "나"
        ],
        [
          "y",
          "p"
        ],
        [
          "て",
          "いる"
        ],
        [
          "い",
          "ろ"
        ],
        [
          "上",
          "海"
        ],
        [
          "と",
          "か"
        ],
        [
          "ため",
          "に"
        ],
        [
          "ン",
          "ド"
        ],
        [
          "發",
          "展"
        ],
        [
          "る",
          "ことが"
        ],
        [
          "ー",
          "プ"
        ],
        [
          "自分",
          "の"
        ],
        [
          "充",
          "分"
        ],
        [
          "▁",
          "플"
        ],
        [
          "교",
          "육"
        ],
        [
          "食",
          "品"
        ],
        [
          "同",
          "時"
        ],
        [
          "y",
          "s"
        ],
        [
          "美",
          "國"
        ],
        [
          "e",
          "x"
        ],
        [
          "▁그",
          "래"
        ],
        [
          "不",
          "足"
        ],
        [
          "产",
          "生"
        ],
        [
          "と",
          "ても"
        ],
        [
          "自",
          "動"
        ],
        [
          "以",
          "為"
        ],
        [
          "创",
          "业"
        ],
        [
          "성",
          "이"
        ],
        [
          "▁1",
          "1"
        ],
        [
          "하",
          "다."
        ],
        [
          "買",
          "い"
        ],
        [
          "持",
          "续"
        ],
        [
          "i",
          "ence"
        ],
        [
          "▁것",
          "입니다."
        ],
        [
          "カ",
          "ード"
        ],
        [
          "’",
          "t"
        ],
        [
          "그",
          "램"
        ],
        [
          "ww",
          "w"
        ],
        [
          "▁정",
          "도"
        ],
        [
          "し",
          "ない"
        ],
        [
          "▁c",
          "ol"
        ],
        [
          "▁p",
          "ol"
        ],
        [
          "可能",
          "性"
        ],
        [
          "▁",
          "날"
        ],
        [
          "安",
          "い"
        ],
        [
          "in",
          "ess"
        ],
        [
          "하",
          "면서"
        ],
        [
          "代書",
          "貸款"
        ],
        [
          "有",
          "些"
        ],
        [
          "关",
          "键"
        ],
        [
          "短",
          "期"
        ],
        [
          "▁어",
          "려"
        ],
        [
          "▁",
          "했다."
        ],
        [
          "▁국",
          "민"
        ],
        [
          "います",
          "が、"
        ],
        [
          "にな",
          "った"
        ],
        [
          "有",
          "的"
        ],
        [
          "▁새",
          "로운"
        ],
        [
          "on",
          "s"
        ],
        [
          "キ",
          "ング"
        ],
        [
          "▁in",
          "c"
        ],
        [
          "い",
          "ない"
        ],
        [
          "ー",
          "ズ"
        ],
        [
          "f",
          "ore"
        ],
        [
          "按",
          "照"
        ],
        [
          "建",
          "筑"
        ],
        [
          "▁re",
          "qu"
        ],
        [
          "代",
          "辦"
        ],
        [
          "▁W",
          "h"
        ],
        [
          "▁",
          "용"
        ],
        [
          "的",
          "小"
        ],
        [
          "▁그",
          "것"
        ],
        [
          "一",
          "样"
        ],
        [
          "香",
          "港"
        ],
        [
          "▁R",
          "e"
        ],
        [
          "▁있",
          "도록"
        ],
        [
          "5",
          "年"
        ],
        [
          "이",
          "고"
        ],
        [
          "▁",
          "ア"
        ],
        [
          "ケ",
          "ース"
        ],
        [
          "好",
          "き"
        ],
        [
          "▁b",
          "u"
        ],
        [
          "ir",
          "st"
        ],
        [
          "艺",
          "术"
        ],
        [
          "▁whe",
          "re"
        ],
        [
          "見",
          "積"
        ],
        [
          "상",
          "을"
        ],
        [
          "▁국",
          "내"
        ],
        [
          "交",
          "流"
        ],
        [
          "目",
          "標"
        ],
        [
          "▁",
          "곳"
        ],
        [
          "가",
          "는"
        ],
        [
          "，而",
          "且"
        ],
        [
          "라",
          "인"
        ],
        [
          "or",
          "k"
        ],
        [
          "身分證",
          "借錢"
        ],
        [
          "加",
          "工"
        ],
        [
          "ー",
          "タ"
        ],
        [
          "系",
          "統"
        ],
        [
          "想",
          "要"
        ],
        [
          "회",
          "생"
        ],
        [
          "ot",
          "h"
        ],
        [
          "ン",
          "プ"
        ],
        [
          "全",
          "部"
        ],
        [
          "▁하",
          "지만"
        ],
        [
          "사",
          "는"
        ],
        [
          "▁1",
          "5"
        ],
        [
          "利",
          "益"
        ],
        [
          "を",
          "ご"
        ],
        [
          "▁있",
          "을"
        ],
        [
          "结",
          "合"
        ],
        [
          "，",
          "将"
        ],
        [
          "▁",
          "논"
        ],
        [
          "▁",
          "눈"
        ],
        [
          "▁활",
          "동"
        ],
        [
          "ー",
          "ツ"
        ],
        [
          "文",
          "章"
        ],
        [
          "▁있",
          "었"
        ],
        [
          ",",
          "但"
        ],
        [
          "の",
          "人"
        ],
        [
          "▁이",
          "야"
        ],
        [
          "不",
          "到"
        ],
        [
          "if",
          "e"
        ],
        [
          "事",
          "情"
        ],
        [
          "p",
          "h"
        ],
        [
          "当",
          "然"
        ],
        [
          "理",
          "论"
        ],
        [
          "出",
          "來"
        ],
        [
          "an",
          "ge"
        ],
        [
          "貸款",
          "嗎"
        ],
        [
          "っ",
          "かり"
        ],
        [
          "旅",
          "游"
        ],
        [
          "そ",
          "して"
        ],
        [
          "落",
          "实"
        ],
        [
          "生",
          "态"
        ],
        [
          "▁중",
          "국"
        ],
        [
          "中",
          "古"
        ],
        [
          "▁",
          "북"
        ],
        [
          "▁",
          "小"
        ],
        [
          "け",
          "た"
        ],
        [
          "外",
          "，"
        ],
        [
          "되",
          "고"
        ],
        [
          "適",
          "合"
        ],
        [
          "お",
          "すすめ"
        ],
        [
          "，他",
          "们"
        ],
        [
          "機車",
          "貸款"
        ],
        [
          "통",
          "령"
        ],
        [
          "の",
          "一"
        ],
        [
          "にな",
          "ります。"
        ],
        [
          "▁w",
          "ay"
        ],
        [
          "辦",
          "理"
        ],
        [
          "工",
          "具"
        ],
        [
          "け",
          "れば"
        ],
        [
          "▁e",
          "very"
        ],
        [
          "im",
          "ited"
        ],
        [
          "ク",
          "ラ"
        ],
        [
          "教",
          "学"
        ],
        [
          "業",
          "務"
        ],
        [
          "记",
          "者"
        ],
        [
          "ザ",
          "ー"
        ],
        [
          "哪裡",
          "可以"
        ],
        [
          "の",
          "も"
        ],
        [
          "▁",
          "갖"
        ],
        [
          "リ",
          "ン"
        ],
        [
          "専",
          "門"
        ],
        [
          "he",
          "d"
        ],
        [
          "群",
          "众"
        ],
        [
          "の",
          "ある"
        ],
        [
          "a",
          "ir"
        ],
        [
          "▁학",
          "생"
        ],
        [
          "联",
          "网"
        ],
        [
          "ました",
          "が、"
        ],
        [
          "结",
          "果"
        ],
        [
          "综",
          "合"
        ],
        [
          "今",
          "日"
        ],
        [
          "ow",
          "er"
        ],
        [
          "▁",
          "얼"
        ],
        [
          ",",
          "不"
        ],
        [
          "く",
          "、"
        ],
        [
          "べ",
          "き"
        ],
        [
          "力",
          "的"
        ],
        [
          "契",
          "約"
        ],
        [
          "く",
          "れる"
        ],
        [
          "ら",
          "、"
        ],
        [
          "▁2",
          "."
        ],
        [
          "ク",
          "ト"
        ],
        [
          "▁",
          "로"
        ],
        [
          "た",
          "だ"
        ],
        [
          "▁",
          "ス"
        ],
        [
          "其",
          "中"
        ],
        [
          "▁",
          "生"
        ],
        [
          "資",
          "訊"
        ],
        [
          "al",
          "th"
        ],
        [
          "▁",
          "very"
        ],
        [
          "电",
          "子"
        ],
        [
          "▁",
          "而"
        ],
        [
          "考",
          "えて"
        ],
        [
          "▁다",
          "음"
        ],
        [
          "證件",
          "借款"
        ],
        [
          "m",
          "m"
        ],
        [
          "」",
          "という"
        ],
        [
          "O",
          "N"
        ],
        [
          "合",
          "理"
        ],
        [
          "뉴",
          "스"
        ],
        [
          "方",
          "が"
        ],
        [
          "可以",
          "貸款嗎"
        ],
        [
          "▁re",
          "m"
        ],
        [
          "7",
          "0"
        ],
        [
          "た",
          "く"
        ],
        [
          "机",
          "制"
        ],
        [
          "战",
          "略"
        ],
        [
          "들",
          "과"
        ],
        [
          "」",
          "の"
        ],
        [
          "▁r",
          "ight"
        ],
        [
          "新",
          "娘"
        ],
        [
          "▁man",
          "y"
        ],
        [
          "et",
          "h"
        ],
        [
          "って",
          "お"
        ],
        [
          "▁p",
          "r"
        ],
        [
          "地下錢莊",
          "借錢"
        ],
        [
          "▁좋",
          "은"
        ],
        [
          "▁c",
          "ould"
        ],
        [
          "而",
          "不"
        ],
        [
          "対",
          "応"
        ],
        [
          "故",
          "事"
        ],
        [
          "ur",
          "n"
        ],
        [
          "等",
          "。"
        ],
        [
          "销",
          "售"
        ],
        [
          "继",
          "续"
        ],
        [
          "会",
          "议"
        ],
        [
          "▁",
          ","
        ],
        [
          "室",
          "內"
        ],
        [
          "▁",
          "먹"
        ],
        [
          "达",
          "到"
        ],
        [
          "数",
          "字"
        ],
        [
          "p",
          "le"
        ],
        [
          "▁추",
          "진"
        ],
        [
          "ラン",
          "ド"
        ],
        [
          "干",
          "部"
        ],
        [
          "▁l",
          "ook"
        ],
        [
          "▁안",
          "전"
        ],
        [
          "引",
          "き"
        ],
        [
          "然",
          "后"
        ],
        [
          "オ",
          "ン"
        ],
        [
          "大",
          "量"
        ],
        [
          "4",
          "."
        ],
        [
          "込",
          "み"
        ],
        [
          "便",
          "利"
        ],
        [
          "rou",
          "nd"
        ],
        [
          "ー",
          "ション"
        ],
        [
          "正",
          "常"
        ],
        [
          "ず",
          "、"
        ],
        [
          "本",
          "当"
        ],
        [
          "ad",
          "e"
        ],
        [
          "9",
          "0"
        ],
        [
          "最",
          "佳"
        ],
        [
          "▁말",
          "했다."
        ],
        [
          "▁내",
          "용"
        ],
        [
          "基",
          "金"
        ],
        [
          "制",
          "服"
        ],
        [
          "经",
          "验"
        ],
        [
          "デ",
          "ザ"
        ],
        [
          "未",
          "来"
        ],
        [
          "ン",
          "ス"
        ],
        [
          "기",
          "업"
        ],
        [
          "银",
          "行"
        ],
        [
          "g",
          "le"
        ],
        [
          "空",
          "間"
        ],
        [
          "시",
          "간"
        ],
        [
          "▁",
          "この"
        ],
        [
          "。",
          "而"
        ],
        [
          "▁제",
          "품"
        ],
        [
          "▁be",
          "c"
        ],
        [
          "深",
          "入"
        ],
        [
          "▁",
          "넘"
        ],
        [
          "，",
          "她"
        ],
        [
          "債務",
          "整合"
        ],
        [
          "▁st",
          "ud"
        ],
        [
          "▁이",
          "러"
        ],
        [
          "が",
          "ない"
        ],
        [
          "▁d",
          "esign"
        ],
        [
          "▁in",
          "formation"
        ],
        [
          "期",
          "待"
        ],
        [
          "▁",
          "버"
        ],
        [
          "▁",
          "축"
        ],
        [
          "▁활",
          "용"
        ],
        [
          "▁E",
          "ng"
        ],
        [
          "人",
          "員"
        ],
        [
          "成",
          "分"
        ],
        [
          "u",
          "ch"
        ],
        [
          "前",
          "に"
        ],
        [
          "空",
          "间"
        ],
        [
          "있",
          "는"
        ],
        [
          "▁나",
          "타"
        ],
        [
          "呢",
          "？"
        ],
        [
          "，",
          "如果"
        ],
        [
          "▁p",
          "o"
        ],
        [
          "is",
          "s"
        ],
        [
          "an",
          "k"
        ],
        [
          "し",
          "ます"
        ],
        [
          "，",
          "它"
        ],
        [
          "小額",
          "借錢"
        ],
        [
          "b",
          "le"
        ],
        [
          "股",
          "票"
        ],
        [
          "장",
          "이"
        ],
        [
          "土地",
          "銀行"
        ],
        [
          "ic",
          "es"
        ],
        [
          "道",
          "：“"
        ],
        [
          "注",
          "册"
        ],
        [
          "）",
          "、"
        ],
        [
          "簡",
          "単"
        ],
        [
          "運",
          "動"
        ],
        [
          "at",
          "ure"
        ],
        [
          "ま",
          "しょう。"
        ],
        [
          "起",
          "来"
        ],
        [
          "帮",
          "助"
        ],
        [
          "ou",
          "gh"
        ],
        [
          "有",
          "关"
        ],
        [
          "▁c",
          "ar"
        ],
        [
          "▁sp",
          "ec"
        ],
        [
          "公",
          "共"
        ],
        [
          "us",
          "iness"
        ],
        [
          "定",
          "的"
        ],
        [
          "学",
          "院"
        ],
        [
          "en",
          "er"
        ],
        [
          "시",
          "는"
        ],
        [
          "ur",
          "ing"
        ],
        [
          "ちゃ",
          "ん"
        ],
        [
          "に",
          "と"
        ],
        [
          "三",
          "十"
        ],
        [
          "ch",
          "n"
        ],
        [
          "じ",
          "ゃ"
        ],
        [
          "▁의",
          "미"
        ],
        [
          "ak",
          "ing"
        ],
        [
          "って",
          "いた"
        ],
        [
          "▁tr",
          "ans"
        ],
        [
          "有",
          "人"
        ],
        [
          "パ",
          "ン"
        ],
        [
          "な",
          "り"
        ],
        [
          "做",
          "好"
        ],
        [
          "ed",
          ","
        ],
        [
          "▁선",
          "택"
        ],
        [
          "实",
          "践"
        ],
        [
          "つ",
          "の"
        ],
        [
          "l",
          "es"
        ],
        [
          "處",
          "理"
        ],
        [
          "at",
          "a"
        ],
        [
          "ベ",
          "ル"
        ],
        [
          "ut",
          "ion"
        ],
        [
          "的",
          "高"
        ],
        [
          "st",
          "ru"
        ],
        [
          "▁t",
          "w"
        ],
        [
          "人",
          "们"
        ],
        [
          "했",
          "습니다."
        ],
        [
          "も",
          "う"
        ],
        [
          "▁코",
          "로나"
        ],
        [
          "▁",
          "高"
        ],
        [
          "程",
          "序"
        ],
        [
          "▁",
          "ke"
        ],
        [
          "ent",
          "s"
        ],
        [
          "▁se",
          "e"
        ],
        [
          "ow",
          "s"
        ],
        [
          "▁",
          "존"
        ],
        [
          "▁",
          "為"
        ],
        [
          "回",
          "收"
        ],
        [
          "か",
          "もしれ"
        ],
        [
          "许",
          "多"
        ],
        [
          "房貸",
          "利率"
        ],
        [
          "フォ",
          "ーム"
        ],
        [
          "▁",
          "ent"
        ],
        [
          "も",
          "り"
        ],
        [
          "이",
          "는"
        ],
        [
          "随",
          "着"
        ],
        [
          "場",
          "所"
        ],
        [
          "9",
          "年"
        ],
        [
          "ar",
          "ch"
        ],
        [
          "ジ",
          "ェ"
        ],
        [
          "廣",
          "告"
        ],
        [
          "旅",
          "遊"
        ],
        [
          "다",
          "\""
        ],
        [
          "指",
          "出"
        ],
        [
          "▁diff",
          "ere"
        ],
        [
          "培",
          "训"
        ],
        [
          "ア",
          "プリ"
        ],
        [
          "一",
          "年"
        ],
        [
          "口",
          "コミ"
        ],
        [
          "자",
          "를"
        ],
        [
          "▁문",
          "화"
        ],
        [
          "ro",
          "w"
        ],
        [
          "る",
          "と"
        ],
        [
          "▁",
          "볼"
        ],
        [
          "汽",
          "车"
        ],
        [
          "海",
          "外"
        ],
        [
          "コ",
          "ー"
        ],
        [
          "す",
          "ぐ"
        ],
        [
          ",",
          "在"
        ],
        [
          "기",
          "는"
        ],
        [
          "して",
          "いた"
        ],
        [
          "▁ev",
          "en"
        ],
        [
          "▁",
          "백"
        ],
        [
          "ま",
          "だ"
        ],
        [
          "사",
          "가"
        ],
        [
          "找",
          "到"
        ],
        [
          "は",
          "「"
        ],
        [
          "心",
          "理"
        ],
        [
          "▁",
          "네"
        ],
        [
          "h",
          "ip"
        ],
        [
          "が",
          "出"
        ],
        [
          "く",
          "らい"
        ],
        [
          "▁",
          "브"
        ],
        [
          "です",
          "よ"
        ],
        [
          "から",
          "の"
        ],
        [
          "参",
          "与"
        ],
        [
          "で",
          "あ"
        ],
        [
          "으",
          "면"
        ],
        [
          "準",
          "備"
        ],
        [
          "ため",
          "の"
        ],
        [
          "▁",
          "길"
        ],
        [
          "那",
          "么"
        ],
        [
          "▁H",
          "e"
        ],
        [
          "上",
          "が"
        ],
        [
          "地",
          "域"
        ],
        [
          "회",
          "를"
        ],
        [
          "でき",
          "ない"
        ],
        [
          "ー",
          "ター"
        ],
        [
          "」",
          "を"
        ],
        [
          "一",
          "家"
        ],
        [
          "だ",
          "と"
        ],
        [
          "美",
          "容"
        ],
        [
          "ark",
          "et"
        ],
        [
          "▁",
          "삼"
        ],
        [
          "동",
          "차"
        ],
        [
          "ダウン",
          "ロード"
        ],
        [
          "▁de",
          "c"
        ],
        [
          "媒",
          "体"
        ],
        [
          "制",
          "作"
        ],
        [
          "2",
          "8"
        ],
        [
          "▁",
          "애"
        ],
        [
          "子",
          "，"
        ],
        [
          "▁환",
          "경"
        ],
        [
          "私",
          "は"
        ],
        [
          "面",
          "的"
        ],
        [
          "治",
          "疗"
        ],
        [
          "시",
          "아"
        ],
        [
          "▁",
          "뒤"
        ],
        [
          "▁o",
          "wn"
        ],
        [
          "▁",
          "첫"
        ],
        [
          "不",
          "動"
        ],
        [
          "▁",
          "트"
        ],
        [
          "許",
          "多"
        ],
        [
          "书",
          "记"
        ],
        [
          "▁1",
          "8"
        ],
        [
          "エ",
          "ット"
        ],
        [
          "▁",
          "ra"
        ],
        [
          "▁w",
          "ant"
        ],
        [
          "▁",
          "병"
        ],
        [
          "▁se",
          "c"
        ],
        [
          "違",
          "い"
        ],
        [
          "因",
          "素"
        ],
        [
          "▁이러",
          "한"
        ],
        [
          "ら",
          "れて"
        ],
        [
          "▁신",
          "청"
        ],
        [
          "▁prov",
          "id"
        ],
        [
          "相",
          "手"
        ],
        [
          "代書",
          "借款"
        ],
        [
          "速",
          "度"
        ],
        [
          "식",
          "을"
        ],
        [
          "変",
          "わ"
        ],
        [
          "も",
          "ち"
        ],
        [
          "리",
          "가"
        ],
        [
          "簡",
          "單"
        ],
        [
          "导",
          "致"
        ],
        [
          "的",
          "重要"
        ],
        [
          "▁동",
          "안"
        ],
        [
          "法",
          "院"
        ],
        [
          "時",
          "代"
        ],
        [
          "▁sy",
          "stem"
        ],
        [
          "特",
          "別"
        ],
        [
          "智",
          "慧"
        ],
        [
          "스",
          "템"
        ],
        [
          "と思",
          "う"
        ],
        [
          "なら",
          "、"
        ],
        [
          "运",
          "动"
        ],
        [
          "入",
          "れ"
        ],
        [
          "▁",
          "|"
        ],
        [
          "ワ",
          "ン"
        ],
        [
          "떻",
          "게"
        ],
        [
          "え",
          "た"
        ],
        [
          "小額",
          "貸款"
        ],
        [
          "売",
          "却"
        ],
        [
          "，",
          "可以"
        ],
        [
          "信用",
          "卡"
        ],
        [
          "支",
          "票"
        ],
        [
          "任",
          "务"
        ],
        [
          "生",
          "物"
        ],
        [
          "원",
          "을"
        ],
        [
          "收",
          "入"
        ],
        [
          "▁이",
          "유"
        ],
        [
          "▁예",
          "정"
        ],
        [
          ",",
          "000"
        ],
        [
          "的",
          "意"
        ],
        [
          "g",
          "an"
        ],
        [
          "促",
          "进"
        ],
        [
          "无",
          "法"
        ],
        [
          "▁p",
          "h"
        ],
        [
          "▁대",
          "통령"
        ],
        [
          "▁이",
          "를"
        ],
        [
          "负",
          "责"
        ],
        [
          "，",
          "如"
        ],
        [
          "リ",
          "ング"
        ],
        [
          "ce",
          "pt"
        ],
        [
          "介",
          "绍"
        ],
        [
          "手",
          "机"
        ],
        [
          "な",
          "ので、"
        ],
        [
          "他",
          "の"
        ],
        [
          "▁건",
          "강"
        ],
        [
          "販",
          "売"
        ],
        [
          "▁최",
          "근"
        ],
        [
          "對",
          "於"
        ],
        [
          "▁구",
          "성"
        ],
        [
          "▁1",
          "00"
        ],
        [
          "哪裡可以",
          "借錢"
        ],
        [
          "集",
          "中"
        ],
        [
          "試算",
          "表"
        ],
        [
          "我",
          "国"
        ],
        [
          "规",
          "划"
        ],
        [
          "优",
          "势"
        ],
        [
          "at",
          "h"
        ],
        [
          "▁",
          "第"
        ],
        [
          "风",
          "险"
        ],
        [
          "▁올",
          "해"
        ],
        [
          "g",
          "et"
        ],
        [
          "住",
          "民"
        ],
        [
          "A",
          "R"
        ],
        [
          "事",
          "件"
        ],
        [
          "范",
          "围"
        ],
        [
          "措",
          "施"
        ],
        [
          "用",
          "于"
        ],
        [
          "通",
          "販"
        ],
        [
          "雖",
          "然"
        ],
        [
          "整",
          "理"
        ],
        [
          "家",
          "具"
        ],
        [
          "▁g",
          "ood"
        ],
        [
          "▁",
          "커"
        ],
        [
          "以",
          "前"
        ],
        [
          "▁",
          "은"
        ],
        [
          "▁설",
          "명"
        ],
        [
          "ri",
          "v"
        ],
        [
          "a",
          "x"
        ],
        [
          "，",
          "因为"
        ],
        [
          "成",
          "果"
        ],
        [
          "ッ",
          "ション"
        ],
        [
          "か",
          "に"
        ],
        [
          "2",
          "6"
        ],
        [
          "▁",
          "빠"
        ],
        [
          "重",
          "大"
        ],
        [
          "▁the",
          "n"
        ],
        [
          "ion",
          "al"
        ],
        [
          "▁포",
          "함"
        ],
        [
          "▁su",
          "b"
        ],
        [
          "クリ",
          "ニック"
        ],
        [
          "▁",
          "된다."
        ],
        [
          "然",
          "後"
        ],
        [
          "房",
          "子"
        ],
        [
          "c",
          "o"
        ],
        [
          "也",
          "有"
        ],
        [
          "▁b",
          "r"
        ],
        [
          "▁시",
          "장"
        ],
        [
          "▁b",
          "ack"
        ],
        [
          "機車",
          "分期"
        ],
        [
          "員",
          "林"
        ],
        [
          "oc",
          "i"
        ],
        [
          "党",
          "的"
        ],
        [
          "▁이",
          "미"
        ],
        [
          "8",
          "年"
        ],
        [
          "t",
          "en"
        ],
        [
          "ri",
          "b"
        ],
        [
          "E",
          "D"
        ],
        [
          "▁어",
          "떻게"
        ],
        [
          "I",
          "T"
        ],
        [
          ",",
          "最"
        ],
        [
          "是",
          "一个"
        ],
        [
          "です",
          "ね。"
        ],
        [
          "債務",
          "協商"
        ],
        [
          "w",
          "ard"
        ],
        [
          "t",
          "y"
        ],
        [
          "20",
          "20"
        ],
        [
          "▁f",
          "irst"
        ],
        [
          "▁s",
          "he"
        ],
        [
          "る",
          "こと"
        ],
        [
          "▁de",
          "velop"
        ],
        [
          "では",
          "ない"
        ],
        [
          "이",
          "터"
        ],
        [
          "资",
          "金"
        ],
        [
          "旅",
          "行"
        ],
        [
          "設",
          "定"
        ],
        [
          "▁",
          "허"
        ],
        [
          "，",
          "又"
        ],
        [
          "知",
          "識"
        ],
        [
          "に",
          "か"
        ],
        [
          "する",
          "と"
        ],
        [
          "一",
          "人"
        ],
        [
          "决",
          "定"
        ],
        [
          "比",
          "如"
        ],
        [
          "ス",
          "の"
        ],
        [
          "出",
          "的"
        ],
        [
          "报",
          "告"
        ],
        [
          "oo",
          "gle"
        ],
        [
          "覺",
          "得"
        ],
        [
          "不",
          "會"
        ],
        [
          "▁",
          "和"
        ],
        [
          "特",
          "に"
        ],
        [
          "▁부",
          "분"
        ],
        [
          "多",
          "年"
        ],
        [
          "▁프로",
          "그램"
        ],
        [
          "月子",
          "中心"
        ],
        [
          "一",
          "种"
        ],
        [
          "▁f",
          "in"
        ],
        [
          "這",
          "種"
        ],
        [
          "を",
          "作"
        ],
        [
          "的",
          "工作"
        ],
        [
          "更",
          "新"
        ],
        [
          "检",
          "查"
        ],
        [
          "으",
          "며"
        ],
        [
          "然",
          "而"
        ],
        [
          "最",
          "后"
        ],
        [
          "사",
          "의"
        ],
        [
          "▁",
          "삶"
        ],
        [
          "デザ",
          "イン"
        ],
        [
          "▁바",
          "로"
        ],
        [
          "as",
          "ed"
        ],
        [
          "▁in",
          "ter"
        ],
        [
          "不",
          "良"
        ],
        [
          "配",
          "合"
        ],
        [
          "她",
          "的"
        ],
        [
          "视",
          "频"
        ],
        [
          "セ",
          "ット"
        ],
        [
          "擁",
          "有"
        ],
        [
          "也",
          "〉"
        ],
        [
          "ら",
          "れた"
        ],
        [
          "でも",
          "、"
        ],
        [
          "家",
          "的"
        ],
        [
          "發",
          "現"
        ],
        [
          "思",
          "い"
        ],
        [
          "▁개인",
          "회생"
        ],
        [
          "▁무",
          "엇"
        ],
        [
          "p",
          "s"
        ],
        [
          "事",
          "業"
        ],
        [
          "金",
          "門"
        ],
        [
          "だ",
          "ろう"
        ],
        [
          "薬",
          "剤"
        ],
        [
          "▁a",
          "ut"
        ],
        [
          "还",
          "有"
        ],
        [
          "場合",
          "、"
        ],
        [
          "▁f",
          "ind"
        ],
        [
          "c",
          "m"
        ],
        [
          "教",
          "师"
        ],
        [
          "제",
          "로"
        ],
        [
          "▁o",
          "pt"
        ],
        [
          "▁준",
          "비"
        ],
        [
          "▁그",
          "는"
        ],
        [
          "借錢",
          "管道"
        ],
        [
          "职",
          "业"
        ],
        [
          "e",
          "e"
        ],
        [
          "에서",
          "도"
        ],
        [
          "團",
          "隊"
        ],
        [
          "相",
          "信"
        ],
        [
          "中",
          "小"
        ],
        [
          "▁h",
          "igh"
        ],
        [
          "お",
          "金"
        ],
        [
          "▁bec",
          "ause"
        ],
        [
          "首",
          "先"
        ],
        [
          "，",
          "把"
        ],
        [
          "人",
          "生"
        ],
        [
          "▁",
          "베"
        ],
        [
          "原",
          "付"
        ],
        [
          "周",
          "轉"
        ],
        [
          "阶",
          "段"
        ],
        [
          "▁",
          "レ"
        ],
        [
          "도",
          "를"
        ],
        [
          "▁ex",
          "p"
        ],
        [
          "ド",
          "レス"
        ],
        [
          "家",
          "族"
        ],
        [
          "三",
          "年"
        ],
        [
          "新",
          "竹"
        ],
        [
          "I",
          "C"
        ],
        [
          "关",
          "注"
        ],
        [
          "者,",
          "提供相關細節的諮詢服務."
        ],
        [
          "め",
          "た"
        ],
        [
          "過",
          "去"
        ],
        [
          "▁pro",
          "cess"
        ],
        [
          "不同",
          "的"
        ],
        [
          "互",
          "联网"
        ],
        [
          "发",
          "挥"
        ],
        [
          "农",
          "业"
        ],
        [
          "ろ",
          "ん"
        ],
        [
          "▁",
          "라"
        ],
        [
          "性",
          "能"
        ],
        [
          "一",
          "樣"
        ],
        [
          "I",
          "S"
        ],
        [
          "金",
          "額"
        ],
        [
          "요",
          "?"
        ],
        [
          "▁",
          "면"
        ],
        [
          "▁g",
          "reat"
        ],
        [
          "的",
          "時候"
        ],
        [
          "さん",
          "の"
        ],
        [
          "還",
          "有"
        ],
        [
          "▁th",
          "ose"
        ],
        [
          "！",
          "！"
        ],
        [
          "，",
          "每"
        ],
        [
          "i",
          "ed"
        ],
        [
          "e",
          "w"
        ],
        [
          "セン",
          "ター"
        ],
        [
          "吗",
          "？"
        ],
        [
          "n",
          "ess"
        ],
        [
          "尤",
          "其"
        ],
        [
          "出会",
          "い"
        ],
        [
          "老",
          "师"
        ],
        [
          "▁L",
          "imited"
        ],
        [
          "▁p",
          "res"
        ],
        [
          "a",
          "z"
        ],
        [
          "革",
          "命"
        ],
        [
          "成",
          "了"
        ],
        [
          "规",
          "模"
        ],
        [
          "決",
          "定"
        ],
        [
          "▁ad",
          "v"
        ],
        [
          "▁일",
          "반"
        ],
        [
          "成",
          "為"
        ],
        [
          "al",
          "ity"
        ],
        [
          "竞",
          "争"
        ],
        [
          "2",
          "7"
        ],
        [
          "参",
          "考"
        ],
        [
          "il",
          "y"
        ],
        [
          "に",
          "ある"
        ],
        [
          "プ",
          "ラ"
        ],
        [
          "▁for",
          "m"
        ],
        [
          "▁",
          "쓰"
        ],
        [
          "▁",
          "△"
        ],
        [
          "々",
          "な"
        ],
        [
          "e",
          "f"
        ],
        [
          "ス",
          "マ"
        ],
        [
          "安",
          "排"
        ],
        [
          "民",
          "宿"
        ],
        [
          "문",
          "화"
        ],
        [
          "▁등",
          "의"
        ],
        [
          "기",
          "관"
        ],
        [
          "ポ",
          "ート"
        ],
        [
          "ust",
          "om"
        ],
        [
          "保",
          "護"
        ],
        [
          "i",
          "or"
        ],
        [
          "が",
          "あ"
        ],
        [
          "感",
          "情"
        ],
        [
          "▁s",
          "et"
        ],
        [
          ".",
          "5"
        ],
        [
          "説",
          "明"
        ],
        [
          "し",
          "っかり"
        ],
        [
          "，",
          "即"
        ],
        [
          "文",
          "明"
        ],
        [
          "首次",
          "購屋優惠"
        ],
        [
          "▁산",
          "업"
        ],
        [
          "▁",
          "홍"
        ],
        [
          "▁b",
          "est"
        ],
        [
          "，",
          "更"
        ],
        [
          "各",
          "家"
        ],
        [
          "▁",
          "천"
        ],
        [
          "符",
          "合"
        ],
        [
          "▁s",
          "m"
        ],
        [
          "期間",
          "工"
        ],
        [
          "多く",
          "の"
        ],
        [
          "的",
          "问题"
        ],
        [
          "说",
          "：“"
        ],
        [
          "▁치",
          "료"
        ],
        [
          "もち",
          "ろん"
        ],
        [
          "▁g",
          "u"
        ],
        [
          "o",
          "k"
        ],
        [
          "东",
          "西"
        ],
        [
          "E",
          "O"
        ],
        [
          "▁be",
          "ing"
        ],
        [
          "ひ",
          "と"
        ],
        [
          "인",
          "이"
        ],
        [
          "使",
          "い"
        ],
        [
          "▁자신",
          "의"
        ],
        [
          "re",
          "n"
        ],
        [
          "者",
          "的"
        ],
        [
          "▁직",
          "접"
        ],
        [
          "保",
          "证"
        ],
        [
          "意",
          "识"
        ],
        [
          "ア",
          "ク"
        ],
        [
          "▁사",
          "랑"
        ],
        [
          "ペ",
          "ージ"
        ],
        [
          "が",
          "必要"
        ],
        [
          "日",
          "常"
        ],
        [
          "とい",
          "った"
        ],
        [
          "最",
          "初"
        ],
        [
          "▁",
          "下"
        ],
        [
          "ニ",
          "ング"
        ],
        [
          "ま",
          "と"
        ],
        [
          "万",
          "円"
        ],
        [
          "E",
          "S"
        ],
        [
          "汽車",
          "貸款"
        ],
        [
          "이",
          "지"
        ],
        [
          "▁b",
          "usiness"
        ],
        [
          "不",
          "知"
        ],
        [
          "▁",
          "可"
        ],
        [
          "。",
          "但"
        ],
        [
          "▁되",
          "는"
        ],
        [
          "多",
          "数"
        ],
        [
          "り",
          "に"
        ],
        [
          "▁m",
          "od"
        ],
        [
          "ation",
          ","
        ],
        [
          "觉",
          "得"
        ],
        [
          "讓",
          "您"
        ],
        [
          "▁m",
          "ed"
        ],
        [
          "突",
          "然"
        ],
        [
          "公",
          "室"
        ],
        [
          "▁",
          "要"
        ],
        [
          "表",
          "现"
        ],
        [
          "▁U",
          "n"
        ],
        [
          "变",
          "化"
        ],
        [
          "▁m",
          "uch"
        ],
        [
          "显",
          "示"
        ],
        [
          "가",
          "지"
        ],
        [
          "迅",
          "速"
        ],
        [
          "理",
          "想"
        ],
        [
          "印",
          "象"
        ],
        [
          "な",
          "ので"
        ],
        [
          "み",
          "たい"
        ],
        [
          "▁f",
          "l"
        ],
        [
          "▁imp",
          "ort"
        ],
        [
          "指",
          "导"
        ],
        [
          "未",
          "上市"
        ],
        [
          "으",
          "며,"
        ],
        [
          "状",
          "況"
        ],
        [
          "▁t",
          "ake"
        ],
        [
          "只",
          "能"
        ],
        [
          "▁만들",
          "어"
        ],
        [
          "下",
          "的"
        ],
        [
          "ly",
          ","
        ],
        [
          "ル",
          "の"
        ],
        [
          "体",
          "験"
        ],
        [
          "▁관",
          "리"
        ],
        [
          "▁",
          "암"
        ],
        [
          "不",
          "知道"
        ],
        [
          "ro",
          "p"
        ],
        [
          "e",
          "ver"
        ],
        [
          "农",
          "村"
        ],
        [
          "ッ",
          "グ"
        ],
        [
          "▁지",
          "속"
        ],
        [
          "種",
          "類"
        ],
        [
          "立",
          "即"
        ],
        [
          "5",
          "00"
        ],
        [
          "写",
          "真"
        ],
        [
          "用",
          "的"
        ],
        [
          "一",
          "天"
        ],
        [
          "A",
          "T"
        ],
        [
          "规",
          "范"
        ],
        [
          "！",
          "”"
        ],
        [
          "転",
          "職"
        ],
        [
          "体",
          "育"
        ],
        [
          "！",
          "」"
        ],
        [
          "以",
          "外"
        ],
        [
          "▁",
          "늘"
        ],
        [
          "り",
          "たい"
        ],
        [
          "it",
          "t"
        ],
        [
          "自",
          "动"
        ],
        [
          "经",
          "过"
        ],
        [
          "▁A",
          "nd"
        ],
        [
          "▁l",
          "ong"
        ],
        [
          "ま",
          "ま"
        ],
        [
          "避",
          "免"
        ],
        [
          "と",
          "なる"
        ],
        [
          "▁일",
          "본"
        ],
        [
          "〈",
          "在"
        ],
        [
          "特",
          "殊"
        ],
        [
          "ン",
          "の"
        ],
        [
          "▁d",
          "et"
        ],
        [
          "人",
          "。"
        ],
        [
          "力",
          "，"
        ],
        [
          "これ",
          "は"
        ],
        [
          "▁",
          "高雄"
        ],
        [
          "保",
          "人"
        ],
        [
          "台",
          "新"
        ],
        [
          "▁분",
          "야"
        ],
        [
          "원",
          "이"
        ],
        [
          "ん",
          "ど"
        ],
        [
          "区",
          "域"
        ],
        [
          "文",
          "件"
        ],
        [
          "拥",
          "有"
        ],
        [
          "超",
          "过"
        ],
        [
          "简",
          "单"
        ],
        [
          "サ",
          "ロン"
        ],
        [
          "之",
          "后"
        ],
        [
          "▁평",
          "가"
        ],
        [
          "u",
          "nd"
        ],
        [
          "薬剤",
          "師"
        ],
        [
          "我们",
          "的"
        ],
        [
          "▁이",
          "해"
        ],
        [
          "▁",
          "철"
        ],
        [
          "ち",
          "ょ"
        ],
        [
          "▁a",
          "fter"
        ],
        [
          "者",
          "の"
        ],
        [
          "評",
          "価"
        ],
        [
          "▁s",
          "im"
        ],
        [
          "さ",
          "ま"
        ],
        [
          "病",
          "院"
        ],
        [
          "ic",
          "t"
        ],
        [
          "▁F",
          "or"
        ],
        [
          "共",
          "有"
        ],
        [
          "a",
          "h"
        ],
        [
          "行",
          "动"
        ],
        [
          "的",
          "话"
        ],
        [
          "▁정",
          "책"
        ],
        [
          "i",
          "o"
        ],
        [
          "▁",
          "끝"
        ],
        [
          "效",
          "率"
        ],
        [
          "▁ad",
          "d"
        ],
        [
          "▁",
          "승"
        ],
        [
          "iz",
          "e"
        ],
        [
          ",",
          "這"
        ],
        [
          "c",
          "on"
        ],
        [
          "▁",
          "台中"
        ],
        [
          "項",
          "目"
        ],
        [
          "治",
          "理"
        ],
        [
          "高",
          "校"
        ],
        [
          "フ",
          "レ"
        ],
        [
          "培",
          "养"
        ],
        [
          "这",
          "里"
        ],
        [
          "食",
          "べ"
        ],
        [
          "d",
          "er"
        ],
        [
          "ダイ",
          "エット"
        ],
        [
          "事",
          "務"
        ],
        [
          "メ",
          "ント"
        ],
        [
          "▁tw",
          "o"
        ],
        [
          "어",
          "나"
        ],
        [
          "e",
          "g"
        ],
        [
          "ジ",
          "ュ"
        ],
        [
          "▁가",
          "입"
        ],
        [
          "다",
          "가"
        ],
        [
          "l",
          "ed"
        ],
        [
          "치",
          "를"
        ],
        [
          "全",
          "体"
        ],
        [
          "應",
          "該"
        ],
        [
          "必",
          "須"
        ],
        [
          "▁경",
          "험"
        ],
        [
          "어",
          "요."
        ],
        [
          "is",
          "m"
        ],
        [
          "。",
          "一"
        ],
        [
          "i",
          "k"
        ],
        [
          "团",
          "队"
        ],
        [
          "行",
          "為"
        ],
        [
          "輕",
          "鬆"
        ],
        [
          "作",
          "業"
        ],
        [
          "点",
          "，"
        ],
        [
          "▁도",
          "움"
        ],
        [
          "オ",
          "ー"
        ],
        [
          "▁3",
          "."
        ],
        [
          "グ",
          "ラ"
        ],
        [
          "感",
          "染"
        ],
        [
          "デ",
          "ータ"
        ],
        [
          "國",
          "家"
        ],
        [
          "졌",
          "다."
        ],
        [
          "it",
          "s"
        ],
        [
          "判",
          "断"
        ],
        [
          "▁eff",
          "ect"
        ],
        [
          "▁",
          "就"
        ],
        [
          "ト",
          "ラ"
        ],
        [
          "u",
          "ally"
        ],
        [
          "宣",
          "传"
        ],
        [
          "▁보",
          "고"
        ],
        [
          "as",
          "h"
        ],
        [
          "評",
          "判"
        ],
        [
          "ation",
          "."
        ],
        [
          "わ",
          "れる"
        ],
        [
          "ケ",
          "ット"
        ],
        [
          "マ",
          "イ"
        ],
        [
          "ゲ",
          "ーム"
        ],
        [
          "▁",
          "自"
        ],
        [
          "A",
          "P"
        ],
        [
          "▁st",
          "r"
        ],
        [
          "っ",
          "ぱ"
        ],
        [
          "▁말",
          "씀"
        ],
        [
          "▁",
          "原"
        ],
        [
          "▁생",
          "산"
        ],
        [
          "加",
          "入"
        ],
        [
          "▁p",
          "ur"
        ],
        [
          "哪",
          "些"
        ],
        [
          "▁",
          "죽"
        ],
        [
          "▁찾",
          "아"
        ],
        [
          "搜",
          "尋"
        ],
        [
          "多",
          "的"
        ],
        [
          "を",
          "して"
        ],
        [
          "大き",
          "な"
        ],
        [
          "▁관",
          "심"
        ],
        [
          "软",
          "件"
        ],
        [
          "として",
          "、"
        ],
        [
          "▁사",
          "이"
        ],
        [
          "发展",
          "的"
        ],
        [
          "亿",
          "元"
        ],
        [
          "で",
          "した"
        ],
        [
          "r",
          "on"
        ],
        [
          "其",
          "實"
        ],
        [
          "n",
          "er"
        ],
        [
          "な",
          "ければ"
        ],
        [
          "ent",
          "ial"
        ],
        [
          "▁produ",
          "ct"
        ],
        [
          "民間",
          "借貸"
        ],
        [
          "▁투",
          "자"
        ],
        [
          "▁1",
          "6"
        ],
        [
          "▁ex",
          "t"
        ],
        [
          "▁a",
          "v"
        ],
        [
          "▁differe",
          "nt"
        ],
        [
          "加",
          "快"
        ],
        [
          "▁수",
          "도"
        ],
        [
          "医",
          "疗"
        ],
        [
          "▁개",
          "최"
        ],
        [
          "客",
          "様"
        ],
        [
          "ic",
          "s"
        ],
        [
          "探",
          "偵"
        ],
        [
          "i",
          "x"
        ],
        [
          "雲",
          "林"
        ],
        [
          "，",
          "当"
        ],
        [
          "た",
          "り"
        ],
        [
          "ス",
          "メ"
        ],
        [
          "，",
          "都"
        ],
        [
          "▁",
          "二"
        ],
        [
          "喜",
          "欢"
        ],
        [
          "it",
          "al"
        ],
        [
          "另",
          "一"
        ],
        [
          "大",
          "切"
        ],
        [
          "▁",
          "얻"
        ],
        [
          "能",
          "源"
        ],
        [
          "重要",
          "的"
        ],
        [
          "▁거",
          "래"
        ],
        [
          "▁o",
          "b"
        ],
        [
          "各",
          "種"
        ],
        [
          "る",
          "。"
        ],
        [
          "▁그래",
          "서"
        ],
        [
          "し",
          "ゃ"
        ],
        [
          "!",
          "!"
        ],
        [
          "산",
          "업"
        ],
        [
          "肯",
          "定"
        ],
        [
          "文",
          "字"
        ],
        [
          "하",
          "겠"
        ],
        [
          "稳",
          "定"
        ],
        [
          "だ",
          "から"
        ],
        [
          "지",
          "고"
        ],
        [
          "▁",
          "會"
        ],
        [
          "a",
          "pp"
        ],
        [
          "為",
          "了"
        ],
        [
          "▁따",
          "르"
        ],
        [
          "值",
          "得"
        ],
        [
          "付",
          "き"
        ],
        [
          "消",
          "息"
        ],
        [
          "成",
          "長"
        ],
        [
          "▁있",
          "다는"
        ],
        [
          "一",
          "番"
        ],
        [
          "▁않",
          "고"
        ],
        [
          "的",
          "地方"
        ],
        [
          "开",
          "放"
        ],
        [
          "랜",
          "드"
        ],
        [
          "タイ",
          "プ"
        ],
        [
          "き",
          "たい"
        ],
        [
          "▁학",
          "교"
        ],
        [
          "O",
          "S"
        ],
        [
          "▁A",
          "n"
        ],
        [
          "社会",
          "主义"
        ],
        [
          "”",
          "、"
        ],
        [
          "针",
          "对"
        ],
        [
          "▁wor",
          "ld"
        ],
        [
          "了",
          ","
        ],
        [
          "時",
          "に"
        ],
        [
          "正",
          "式"
        ],
        [
          "专",
          "家"
        ],
        [
          "机",
          "械"
        ],
        [
          "。",
          "如果"
        ],
        [
          "幫",
          "助"
        ],
        [
          "行",
          "動"
        ],
        [
          "ません",
          "が、"
        ],
        [
          "▁comm",
          "un"
        ],
        [
          "想",
          "到"
        ],
        [
          "▁마",
          "련"
        ],
        [
          "시",
          "키"
        ],
        [
          "计",
          "算"
        ],
        [
          "▁너",
          "무"
        ],
        [
          "シ",
          "ステ"
        ],
        [
          "清",
          "楚"
        ],
        [
          "保",
          "育"
        ],
        [
          "付",
          "け"
        ],
        [
          "不",
          "少"
        ],
        [
          "全",
          "身"
        ],
        [
          "建",
          "议"
        ],
        [
          "不",
          "安"
        ],
        [
          "▁d",
          "own"
        ],
        [
          ",",
          "並"
        ],
        [
          "▁s",
          "ur"
        ],
        [
          "라",
          "도"
        ],
        [
          "▁발",
          "전"
        ],
        [
          "원",
          "은"
        ],
        [
          "▁d",
          "es"
        ],
        [
          "▁나",
          "는"
        ],
        [
          "線",
          "上"
        ],
        [
          "대",
          "한"
        ],
        [
          "▁영",
          "향"
        ],
        [
          "▁s",
          "ign"
        ],
        [
          "と",
          "した"
        ],
        [
          "東",
          "西"
        ],
        [
          "▁모",
          "습"
        ],
        [
          "▁",
          "갈"
        ],
        [
          "관",
          "리"
        ],
        [
          "高",
          "的"
        ],
        [
          "ot",
          "her"
        ],
        [
          "幸",
          "福"
        ],
        [
          "教",
          "授"
        ],
        [
          "明",
          "确"
        ],
        [
          "システ",
          "ム"
        ],
        [
          "売",
          "る"
        ],
        [
          "ケ",
          "ア"
        ],
        [
          "o",
          "ol"
        ],
        [
          "嗎",
          "?"
        ],
        [
          "사",
          "회"
        ],
        [
          "好",
          "，"
        ],
        [
          "相",
          "場"
        ],
        [
          "魅",
          "力"
        ],
        [
          "首次購屋優惠",
          "房貸"
        ],
        [
          "▁te",
          "chn"
        ],
        [
          "▁추",
          "가"
        ],
        [
          "▁",
          "패"
        ],
        [
          "u",
          "p"
        ],
        [
          "▁",
          "此"
        ],
        [
          "▁5",
          "0"
        ],
        [
          "銀行",
          "信用貸款"
        ],
        [
          "民",
          "主"
        ],
        [
          "过",
          "去"
        ],
        [
          "▁고",
          "객"
        ],
        [
          "g",
          "ht"
        ],
        [
          "更",
          "生"
        ],
        [
          "3",
          "年"
        ],
        [
          "▁",
          "出"
        ],
        [
          "子",
          "供"
        ],
        [
          "▁당",
          "신"
        ],
        [
          "わ",
          "れ"
        ],
        [
          "買取",
          "買取"
        ],
        [
          "的",
          "发展"
        ],
        [
          "感",
          "覺"
        ],
        [
          "き",
          "ました。"
        ],
        [
          "▁",
          "야"
        ],
        [
          "委",
          "员"
        ],
        [
          "st",
          "and"
        ],
        [
          "引",
          "起"
        ],
        [
          "する",
          "。"
        ],
        [
          "▁분",
          "석"
        ],
        [
          "▁in",
          "st"
        ],
        [
          "道",
          "路"
        ],
        [
          "检",
          "测"
        ],
        [
          "させ",
          "て"
        ],
        [
          "四",
          "十"
        ],
        [
          "疾",
          "病"
        ],
        [
          "▁l",
          "ife"
        ],
        [
          "▁",
          "天"
        ],
        [
          "▁",
          "カ"
        ],
        [
          "吸",
          "引"
        ],
        [
          "执",
          "行"
        ],
        [
          "送",
          "料"
        ],
        [
          "公",
          "開"
        ],
        [
          "」",
          "「"
        ],
        [
          "及",
          "时"
        ],
        [
          "美",
          "元"
        ],
        [
          "有利",
          "的"
        ],
        [
          "▁과",
          "정"
        ],
        [
          "▁않",
          "은"
        ],
        [
          "によ",
          "り"
        ],
        [
          "個",
          "別"
        ],
        [
          "▁",
          "Q"
        ],
        [
          "▁",
          "귀"
        ],
        [
          "生",
          "的"
        ],
        [
          "▁증",
          "가"
        ],
        [
          "組",
          "織"
        ],
        [
          "一",
          "度"
        ],
        [
          "리",
          "스"
        ],
        [
          "▁pro",
          "f"
        ],
        [
          "现",
          "场"
        ],
        [
          "化",
          "、"
        ],
        [
          "是",
          "不"
        ],
        [
          "的",
          "方式"
        ],
        [
          "▁",
          "國"
        ],
        [
          "▁re",
          "f"
        ],
        [
          "创",
          "造"
        ],
        [
          "▁방",
          "문"
        ],
        [
          "원",
          "의"
        ],
        [
          "▁",
          "學"
        ],
        [
          "com",
          "e"
        ],
        [
          "ど",
          "こ"
        ],
        [
          "▁적",
          "용"
        ],
        [
          "記",
          "事"
        ],
        [
          "죠",
          "."
        ],
        [
          "イ",
          "ト"
        ],
        [
          "特",
          "徴"
        ],
        [
          "▁d",
          "ay"
        ],
        [
          "ar",
          "m"
        ],
        [
          "轉",
          "貸"
        ],
        [
          "▁",
          "클"
        ],
        [
          "人",
          "は"
        ],
        [
          "▁효",
          "과"
        ],
        [
          "▁",
          "但"
        ],
        [
          "인",
          "의"
        ],
        [
          "▁",
          "地"
        ],
        [
          "▁",
          "쉽"
        ],
        [
          "联",
          "系"
        ],
        [
          "ur",
          "ance"
        ],
        [
          "▁높",
          "은"
        ],
        [
          "▁ag",
          "ain"
        ],
        [
          "▁",
          "i"
        ],
        [
          "依",
          "頼"
        ],
        [
          "▁처",
          "음"
        ],
        [
          "網",
          "路"
        ],
        [
          "保",
          "健"
        ],
        [
          "整",
          "个"
        ],
        [
          "▁기",
          "준"
        ],
        [
          "の",
          "に"
        ],
        [
          "▁물",
          "론"
        ],
        [
          "的",
          "心"
        ],
        [
          "认",
          "识"
        ],
        [
          "手",
          "續"
        ],
        [
          "▁1",
          "3"
        ],
        [
          "▁시",
          "민"
        ],
        [
          "關",
          "鍵"
        ],
        [
          "しか",
          "し、"
        ],
        [
          "▁en",
          "d"
        ],
        [
          "しま",
          "った"
        ],
        [
          "确",
          "保"
        ],
        [
          "▁결",
          "정"
        ],
        [
          "▁",
          "테"
        ],
        [
          "▁주",
          "요"
        ],
        [
          "’",
          "을"
        ],
        [
          "E",
          "N"
        ],
        [
          "▁H",
          "ow"
        ],
        [
          "▁pl",
          "ay"
        ],
        [
          "ア",
          "ン"
        ],
        [
          "形",
          "象"
        ],
        [
          "表",
          "面"
        ],
        [
          "▁",
          "극"
        ],
        [
          "整合",
          "負債"
        ],
        [
          "▁비",
          "교"
        ],
        [
          "了",
          "."
        ],
        [
          "做",
          "到"
        ],
        [
          "we",
          "en"
        ],
        [
          "电",
          "影"
        ],
        [
          "例",
          "如"
        ],
        [
          "▁필요",
          "한"
        ],
        [
          "严",
          "重"
        ],
        [
          "▁이",
          "것"
        ],
        [
          "▁l",
          "oc"
        ],
        [
          "を",
          "つ"
        ],
        [
          "追",
          "求"
        ],
        [
          "▁m",
          "arket"
        ],
        [
          "的",
          "好"
        ],
        [
          "▁",
          "《"
        ],
        [
          "sel",
          "f"
        ],
        [
          ",",
          "我"
        ],
        [
          "▁인",
          "간"
        ],
        [
          "過",
          "程"
        ],
        [
          "2",
          "9"
        ],
        [
          "ラン",
          "キング"
        ],
        [
          "력",
          "이"
        ],
        [
          "手",
          "段"
        ],
        [
          "登",
          "録"
        ],
        [
          "って",
          "い"
        ],
        [
          "▁dis",
          "c"
        ],
        [
          "▁",
          "その"
        ],
        [
          "獲",
          "得"
        ],
        [
          "的",
          "那"
        ],
        [
          "能",
          "夠"
        ],
        [
          "而",
          "言"
        ],
        [
          "来",
          "越"
        ],
        [
          "▁해",
          "결"
        ],
        [
          "房屋",
          "二胎"
        ],
        [
          "A",
          "L"
        ],
        [
          "く",
          "れ"
        ],
        [
          "業",
          "界"
        ],
        [
          "完",
          "整"
        ],
        [
          "ect",
          "ion"
        ],
        [
          "対",
          "策"
        ],
        [
          "准",
          "备"
        ],
        [
          "す",
          "ぎ"
        ],
        [
          "同",
          "时，"
        ],
        [
          "組",
          "み"
        ],
        [
          "享",
          "受"
        ],
        [
          "▁1",
          "4"
        ],
        [
          "▁do",
          "es"
        ],
        [
          "）",
          "，"
        ],
        [
          "▁생",
          "활"
        ],
        [
          "より",
          "も"
        ],
        [
          "卡",
          "債"
        ],
        [
          "ブ",
          "ロ"
        ],
        [
          "데",
          ","
        ],
        [
          "身分證",
          "借款"
        ],
        [
          "額",
          "度"
        ],
        [
          "基",
          "地"
        ],
        [
          "调",
          "整"
        ],
        [
          "▁미",
          "래"
        ],
        [
          "不",
          "過"
        ],
        [
          "気",
          "持ち"
        ],
        [
          "▁대",
          "학"
        ],
        [
          "用",
          "品"
        ],
        [
          "▁Eng",
          "ine"
        ],
        [
          "心",
          "的"
        ],
        [
          "看",
          "看"
        ],
        [
          "投",
          "入"
        ],
        [
          "せ",
          "る"
        ],
        [
          "概",
          "念"
        ],
        [
          "表",
          "現"
        ],
        [
          "有",
          "所"
        ],
        [
          "▁내",
          "가"
        ],
        [
          "增",
          "貸"
        ],
        [
          "考",
          "虑"
        ],
        [
          "ど",
          "んな"
        ],
        [
          "▁supp",
          "ort"
        ],
        [
          "紓",
          "困"
        ],
        [
          "므",
          "로"
        ],
        [
          "▁정",
          "치"
        ],
        [
          "▁A",
          "m"
        ],
        [
          "▁",
          "막"
        ],
        [
          "人",
          "工"
        ],
        [
          "▁The",
          "re"
        ],
        [
          "▁해",
          "당"
        ],
        [
          "事",
          "故"
        ],
        [
          "▁he",
          "alth"
        ],
        [
          "▁part",
          "ic"
        ],
        [
          "けど",
          "、"
        ],
        [
          "安",
          "装"
        ],
        [
          "▁m",
          "ade"
        ],
        [
          "越",
          "来越"
        ],
        [
          "購屋優惠",
          "貸款"
        ],
        [
          "の",
          "み"
        ],
        [
          "▁20",
          "20"
        ],
        [
          "期",
          "间"
        ],
        [
          "▁발",
          "표"
        ],
        [
          "联",
          "合"
        ],
        [
          "感",
          "到"
        ],
        [
          "주",
          "는"
        ],
        [
          "ら",
          "の"
        ],
        [
          "など",
          "を"
        ],
        [
          "▁1",
          "7"
        ],
        [
          "丨",
          "丨"
        ],
        [
          "▁comp",
          "le"
        ],
        [
          "▁더",
          "욱"
        ],
        [
          "借",
          "り"
        ],
        [
          "非常",
          "に"
        ],
        [
          "▁",
          "측"
        ],
        [
          "지",
          "원"
        ],
        [
          "不",
          "仅"
        ],
        [
          "▁be",
          "fore"
        ],
        [
          "▁우리",
          "는"
        ],
        [
          "人",
          "类"
        ],
        [
          "▁",
          "믿"
        ],
        [
          "▁",
          "前"
        ],
        [
          "年",
          "代"
        ],
        [
          ",",
          "一"
        ],
        [
          "事",
          "业"
        ],
        [
          "展",
          "示"
        ],
        [
          "高",
          "度"
        ],
        [
          "生",
          "產"
        ],
        [
          "す",
          "べて"
        ],
        [
          "三",
          "重"
        ],
        [
          "하",
          "였"
        ],
        [
          "▁f",
          "act"
        ],
        [
          "去",
          "年"
        ],
        [
          "樹",
          "林"
        ],
        [
          "掌",
          "握"
        ],
        [
          "ディ",
          "ース"
        ],
        [
          "機",
          "構"
        ],
        [
          "▁c",
          "he"
        ],
        [
          "▁",
          "の"
        ],
        [
          "长",
          "期"
        ],
        [
          "原",
          "住民"
        ],
        [
          "ver",
          "n"
        ],
        [
          "s",
          "s"
        ],
        [
          "も",
          "ある"
        ],
        [
          "iv",
          "id"
        ],
        [
          "▁c",
          "are"
        ],
        [
          "▁d",
          "ata"
        ],
        [
          "▁m",
          "on"
        ],
        [
          "▁오",
          "늘"
        ],
        [
          "▁중",
          "심"
        ],
        [
          "▁bet",
          "ween"
        ],
        [
          "l",
          "ess"
        ],
        [
          "申",
          "请"
        ],
        [
          "玻璃",
          "鋼"
        ],
        [
          "き",
          "、"
        ],
        [
          "代",
          "理"
        ],
        [
          "20",
          "21"
        ],
        [
          "意",
          "識"
        ],
        [
          "詳",
          "細"
        ],
        [
          "加",
          "速"
        ],
        [
          "▁n",
          "um"
        ],
        [
          "就",
          "可以"
        ],
        [
          "▁기",
          "능"
        ],
        [
          "宜",
          "蘭"
        ],
        [
          "x",
          "t"
        ],
        [
          "が",
          "多い"
        ],
        [
          "公",
          "式"
        ],
        [
          "▁de",
          "f"
        ],
        [
          "▁",
          "즐"
        ],
        [
          "▁",
          "日"
        ],
        [
          "情",
          "況"
        ],
        [
          "丰",
          "富"
        ],
        [
          "另",
          "外"
        ],
        [
          "場合",
          "は、"
        ],
        [
          ".",
          "0"
        ],
        [
          "刺",
          "激"
        ],
        [
          "可",
          "是"
        ],
        [
          "ファ",
          "イル"
        ],
        [
          "▁n",
          "ow"
        ],
        [
          "感",
          "觉"
        ],
        [
          "▁",
          "王"
        ],
        [
          "지",
          "역"
        ],
        [
          "했",
          "던"
        ],
        [
          "▁계",
          "속"
        ],
        [
          "▁v",
          "ar"
        ],
        [
          "り",
          "ます"
        ],
        [
          ",",
          "房屋"
        ],
        [
          "的",
          "主"
        ],
        [
          "▁in",
          "f"
        ],
        [
          "위원",
          "회"
        ],
        [
          "物",
          "流"
        ],
        [
          "资",
          "本"
        ],
        [
          "採",
          "用"
        ],
        [
          "▁le",
          "ad"
        ],
        [
          "▁중요",
          "한"
        ],
        [
          "医",
          "療"
        ],
        [
          "▁h",
          "im"
        ],
        [
          "6",
          "年"
        ],
        [
          "ほ",
          "と"
        ],
        [
          "▁",
          "즉"
        ],
        [
          "保",
          "濕"
        ],
        [
          "か",
          "の"
        ],
        [
          "日",
          "の"
        ],
        [
          "v",
          "ing"
        ],
        [
          "父",
          "母"
        ],
        [
          "ol",
          "low"
        ],
        [
          "▁g",
          "ener"
        ],
        [
          "造",
          "型"
        ],
        [
          "시",
          "장"
        ],
        [
          "防",
          "止"
        ],
        [
          "的事",
          "情"
        ],
        [
          "▁res",
          "ult"
        ],
        [
          "保",
          "険"
        ],
        [
          "▁공",
          "동"
        ],
        [
          "▁h",
          "ome"
        ],
        [
          "明",
          "显"
        ],
        [
          "▁p",
          "ay"
        ],
        [
          "体",
          "验"
        ],
        [
          "c",
          "ed"
        ],
        [
          "▁아",
          "닌"
        ],
        [
          "B",
          "C"
        ],
        [
          "연",
          "구"
        ],
        [
          "▁없",
          "이"
        ],
        [
          "整",
          "体"
        ],
        [
          "▁",
          "잡"
        ],
        [
          "2",
          "年"
        ],
        [
          "地",
          "位"
        ],
        [
          "わ",
          "れて"
        ],
        [
          "▁않",
          "았"
        ],
        [
          "身份",
          "證"
        ],
        [
          "▁st",
          "art"
        ],
        [
          "支",
          "援"
        ],
        [
          "▁",
          "外"
        ],
        [
          "本",
          "身"
        ],
        [
          "社",
          "會"
        ],
        [
          "研",
          "发"
        ],
        [
          "力",
          "。"
        ],
        [
          "大",
          "，"
        ],
        [
          "の",
          "「"
        ],
        [
          "ロ",
          "ーン"
        ],
        [
          "申",
          "し"
        ],
        [
          "近",
          "平"
        ],
        [
          "メ",
          "ール"
        ],
        [
          "대",
          "를"
        ],
        [
          "▁",
          "급"
        ],
        [
          "▁th",
          "ink"
        ],
        [
          "公司",
          "的"
        ],
        [
          "▁v",
          "is"
        ],
        [
          "子",
          "的"
        ],
        [
          "▁",
          "먼"
        ],
        [
          "▁m",
          "ust"
        ],
        [
          "なく",
          "な"
        ],
        [
          "▁이",
          "렇게"
        ],
        [
          "制",
          "定"
        ],
        [
          "▁교",
          "수"
        ],
        [
          "带",
          "来"
        ],
        [
          "시",
          "에"
        ],
        [
          "▁선",
          "정"
        ],
        [
          "员",
          "工"
        ],
        [
          "商",
          "业"
        ],
        [
          "開",
          "発"
        ],
        [
          "▁매",
          "우"
        ],
        [
          "▁기",
          "간"
        ],
        [
          "▁A",
          "l"
        ],
        [
          "主",
          "任"
        ],
        [
          "▁여",
          "성"
        ],
        [
          "車貸",
          "利率"
        ],
        [
          "症",
          "状"
        ],
        [
          "勞工",
          "紓困"
        ],
        [
          "▁",
          "폭"
        ],
        [
          "▁pro",
          "g"
        ],
        [
          "▁us",
          "ed"
        ],
        [
          "作",
          "者"
        ],
        [
          "マ",
          "ー"
        ],
        [
          "机",
          "会"
        ],
        [
          "？",
          "”"
        ],
        [
          "最低",
          "銀行"
        ],
        [
          "▁S",
          "h"
        ],
        [
          "▁c",
          "ustom"
        ],
        [
          "國",
          "際"
        ],
        [
          "▁",
          "블"
        ],
        [
          "▁받",
          "아"
        ],
        [
          "▁re",
          "ad"
        ],
        [
          "▁c",
          "re"
        ],
        [
          "出",
          "現"
        ],
        [
          "▁m",
          "in"
        ],
        [
          "P",
          "C"
        ],
        [
          "万",
          "元"
        ],
        [
          "iz",
          "ed"
        ],
        [
          "通",
          "過"
        ],
        [
          "부",
          "분"
        ],
        [
          "▁사람",
          "이"
        ],
        [
          "皮",
          "膚"
        ],
        [
          "▁res",
          "p"
        ],
        [
          "e",
          "."
        ],
        [
          "▁소",
          "비"
        ],
        [
          "である",
          "。"
        ],
        [
          "▁",
          "몇"
        ],
        [
          "▁c",
          "ount"
        ],
        [
          "▁역",
          "할"
        ],
        [
          "に関",
          "する"
        ],
        [
          "ッシ",
          "ュ"
        ],
        [
          "▁p",
          "oss"
        ],
        [
          "这",
          "么"
        ],
        [
          "ユ",
          "ー"
        ],
        [
          "れ",
          "ど"
        ],
        [
          "ou",
          "se"
        ],
        [
          "。",
          "。"
        ],
        [
          "▁인",
          "터"
        ],
        [
          "▁상",
          "품"
        ],
        [
          "また",
          "は"
        ],
        [
          "기",
          "술"
        ],
        [
          "s",
          "u"
        ],
        [
          "▁",
          "엄"
        ],
        [
          "▁P",
          "l"
        ],
        [
          "く",
          "り"
        ],
        [
          "1",
          "年"
        ],
        [
          "▁t",
          "yp"
        ],
        [
          "資",
          "格"
        ],
        [
          "▁de",
          "p"
        ],
        [
          "人",
          "間"
        ],
        [
          "▁이",
          "날"
        ],
        [
          "審",
          "査"
        ],
        [
          "▁c",
          "le"
        ],
        [
          "监",
          "督"
        ],
        [
          "豐",
          "富"
        ],
        [
          "▁국",
          "제"
        ],
        [
          "キャ",
          "ン"
        ],
        [
          "▁개",
          "선"
        ],
        [
          "运",
          "营"
        ],
        [
          "。",
          "当"
        ],
        [
          "er",
          ","
        ],
        [
          "满",
          "足"
        ],
        [
          "。",
          "我们"
        ],
        [
          "리",
          "아"
        ],
        [
          "里",
          "，"
        ],
        [
          "さら",
          "に"
        ],
        [
          "平",
          "均"
        ],
        [
          "五",
          "十"
        ],
        [
          "技",
          "能"
        ],
        [
          "▁on",
          "line"
        ],
        [
          "定",
          "期"
        ],
        [
          "환",
          "경"
        ],
        [
          "徵",
          "信"
        ],
        [
          "▁v",
          "al"
        ],
        [
          "的",
          "話"
        ],
        [
          "認",
          "為"
        ],
        [
          "stru",
          "ction"
        ],
        [
          "内",
          "部"
        ],
        [
          "悩",
          "み"
        ],
        [
          "▁ar",
          "t"
        ],
        [
          "▁e",
          "ach"
        ],
        [
          "女",
          "子"
        ],
        [
          "メリ",
          "ット"
        ],
        [
          "t",
          "ain"
        ],
        [
          "透",
          "過"
        ],
        [
          "▁",
          "時"
        ],
        [
          "3",
          "月"
        ],
        [
          "土",
          "城"
        ],
        [
          "担",
          "当"
        ],
        [
          "工作",
          "，"
        ],
        [
          "新",
          "聞"
        ],
        [
          "新",
          "北"
        ],
        [
          "污",
          "染"
        ],
        [
          "人",
          "之"
        ],
        [
          ")",
          "는"
        ],
        [
          "毕",
          "业"
        ],
        [
          "就",
          "业"
        ],
        [
          "喜",
          "歡"
        ],
        [
          "ソ",
          "フト"
        ],
        [
          "▁",
          "떠"
        ],
        [
          "습",
          "니다"
        ],
        [
          "▁영",
          "화"
        ],
        [
          "마",
          "트"
        ],
        [
          "▁없",
          "다."
        ],
        [
          "4",
          "年"
        ],
        [
          "▁",
          "범"
        ],
        [
          "其",
          "实"
        ],
        [
          "▁",
          "你"
        ],
        [
          "似",
          "乎"
        ],
        [
          "無",
          "法"
        ],
        [
          "O",
          "R"
        ],
        [
          "▁",
          "那"
        ],
        [
          "。",
          "」"
        ],
        [
          "發",
          "生"
        ],
        [
          "o",
          "ad"
        ],
        [
          "▁h",
          "and"
        ],
        [
          "▁가",
          "격"
        ],
        [
          "▁",
          "也"
        ],
        [
          "仍",
          "然"
        ],
        [
          "ー",
          "カー"
        ],
        [
          "製",
          "品"
        ],
        [
          "▁그",
          "렇"
        ],
        [
          "▁이",
          "에"
        ],
        [
          "ur",
          "al"
        ],
        [
          "にお",
          "いて"
        ],
        [
          "都",
          "不"
        ],
        [
          "减",
          "少"
        ],
        [
          "하",
          "였다."
        ],
        [
          "引越",
          "し"
        ],
        [
          "，",
          "与"
        ],
        [
          "▁wh",
          "ile"
        ],
        [
          "▁고",
          "려"
        ],
        [
          "起",
          "こ"
        ],
        [
          "通",
          "知"
        ],
        [
          "▁이",
          "는"
        ],
        [
          "素",
          "材"
        ],
        [
          "知",
          "名"
        ],
        [
          "▁pl",
          "an"
        ],
        [
          "▁",
          "用"
        ],
        [
          "，",
          "同时"
        ],
        [
          "願",
          "い"
        ],
        [
          "え",
          "、"
        ],
        [
          "▁O",
          "n"
        ],
        [
          "動",
          "画"
        ],
        [
          "3",
          "5"
        ],
        [
          "제",
          "를"
        ],
        [
          "各",
          "地"
        ],
        [
          "▁이",
          "제"
        ],
        [
          "債務",
          "清"
        ],
        [
          "チェ",
          "ック"
        ],
        [
          "彼",
          "女"
        ],
        [
          "v",
          "en"
        ],
        [
          "を行",
          "う"
        ],
        [
          "as",
          "on"
        ],
        [
          "▁보",
          "여"
        ],
        [
          "▁알",
          "려"
        ],
        [
          "建",
          "築"
        ],
        [
          "▁상",
          "태"
        ],
        [
          "▁가지",
          "고"
        ],
        [
          "ファ",
          "ッション"
        ],
        [
          "▁",
          "家"
        ],
        [
          "を",
          "利用"
        ],
        [
          "キ",
          "ー"
        ],
        [
          "快速",
          "撥款"
        ],
        [
          "を",
          "も"
        ],
        [
          "▁",
          "長"
        ],
        [
          "统",
          "一"
        ],
        [
          "▁import",
          "ant"
        ],
        [
          "▁m",
          "ain"
        ],
        [
          "▁시",
          "스템"
        ],
        [
          "▁전",
          "체"
        ],
        [
          "様",
          "々な"
        ],
        [
          "の",
          "ような"
        ],
        [
          "脂",
          "肪"
        ],
        [
          "合",
          "同"
        ],
        [
          "本当",
          "に"
        ],
        [
          "at",
          "her"
        ],
        [
          "大",
          "夫"
        ],
        [
          "是",
          "我"
        ],
        [
          "维",
          "护"
        ],
        [
          "重",
          "新"
        ],
        [
          "▁코로나",
          "19"
        ],
        [
          "i",
          "qu"
        ],
        [
          "，",
          "就是"
        ],
        [
          "c",
          "es"
        ],
        [
          "▁최",
          "고"
        ],
        [
          "や",
          "り"
        ],
        [
          "增",
          "强"
        ],
        [
          "▁",
          "머"
        ],
        [
          "急",
          "需"
        ],
        [
          "製",
          "造"
        ],
        [
          "he",
          "s"
        ],
        [
          "かな",
          "り"
        ],
        [
          "ちょ",
          "っと"
        ],
        [
          "▁",
          "낮"
        ],
        [
          "▁",
          "육"
        ],
        [
          "唯",
          "一"
        ],
        [
          "▁",
          "희"
        ],
        [
          "ス",
          "カ"
        ],
        [
          "ical",
          "ly"
        ],
        [
          "A",
          "C"
        ],
        [
          "後",
          "の"
        ],
        [
          "调",
          "查"
        ],
        [
          "レ",
          "ビ"
        ],
        [
          "ire",
          "ct"
        ],
        [
          "▁A",
          "d"
        ],
        [
          "留",
          "學"
        ],
        [
          "可",
          "愛"
        ],
        [
          "▁실",
          "시"
        ],
        [
          "▁l",
          "aw"
        ],
        [
          "ク",
          "リー"
        ],
        [
          "ub",
          "lic"
        ],
        [
          "w",
          "ay"
        ],
        [
          "ら",
          "しい"
        ],
        [
          "▁따르",
          "면"
        ],
        [
          "er",
          "g"
        ],
        [
          "▁with",
          "out"
        ],
        [
          "之",
          "中"
        ],
        [
          "▁되",
          "어"
        ],
        [
          "改",
          "变"
        ],
        [
          ")",
          "의"
        ],
        [
          "受",
          "け"
        ],
        [
          "-",
          "-"
        ],
        [
          "▁",
          "最"
        ],
        [
          "A",
          "S"
        ],
        [
          "▁s",
          "k"
        ],
        [
          "状",
          "态"
        ],
        [
          "・・",
          "・"
        ],
        [
          "ユ",
          "ニ"
        ],
        [
          "▁con",
          "f"
        ],
        [
          "人",
          "物"
        ],
        [
          "まで",
          "の"
        ],
        [
          "R",
          "O"
        ],
        [
          "回",
          "答"
        ],
        [
          "▁c",
          "ur"
        ],
        [
          "，",
          "中国"
        ],
        [
          "▁강",
          "화"
        ],
        [
          "iz",
          "ation"
        ],
        [
          "自",
          "我"
        ],
        [
          "▁",
          "월"
        ],
        [
          "정",
          "보"
        ],
        [
          "方",
          "は"
        ],
        [
          "比",
          "赛"
        ],
        [
          "があり",
          "、"
        ],
        [
          "來",
          "的"
        ],
        [
          "▁",
          "몸"
        ],
        [
          "▁",
          "."
        ],
        [
          "设",
          "施"
        ],
        [
          "▁",
          "왜"
        ],
        [
          "运",
          "行"
        ],
        [
          "样",
          "的"
        ],
        [
          "ers",
          ","
        ],
        [
          "▁있",
          "었다."
        ],
        [
          "，",
          "无"
        ],
        [
          "それ",
          "は"
        ],
        [
          "a",
          ","
        ],
        [
          "▁",
          "全"
        ],
        [
          "▁유",
          "지"
        ],
        [
          "▁존",
          "재"
        ],
        [
          "时",
          "期"
        ],
        [
          "u",
          "c"
        ],
        [
          "t",
          "s"
        ],
        [
          "のでは",
          "ない"
        ],
        [
          "▁일",
          "부"
        ],
        [
          "▁",
          "無"
        ],
        [
          "あり",
          "ます"
        ],
        [
          "小額",
          "借貸"
        ],
        [
          "し",
          "ながら"
        ],
        [
          "社",
          "区"
        ],
        [
          "▁",
          "잠"
        ],
        [
          "▁d",
          "id"
        ],
        [
          "금",
          "을"
        ],
        [
          "，",
          "用"
        ],
        [
          "上",
          "下"
        ],
        [
          "で",
          "お"
        ],
        [
          "申請",
          "者,提供相關細節的諮詢服務."
        ],
        [
          "に",
          "出"
        ],
        [
          "▁2",
          "4"
        ],
        [
          "▁주",
          "민"
        ],
        [
          "严",
          "格"
        ],
        [
          "に",
          "して"
        ],
        [
          "明",
          "白"
        ],
        [
          "来",
          "自"
        ],
        [
          "는데",
          ","
        ],
        [
          "운",
          "데"
        ],
        [
          "▁",
          "X"
        ],
        [
          "党",
          "员"
        ],
        [
          "勞工",
          "貸款"
        ],
        [
          "的",
          "服務"
        ],
        [
          "办",
          "法"
        ],
        [
          "▁",
          "多"
        ],
        [
          "习",
          "近平"
        ],
        [
          "にと",
          "って"
        ],
        [
          "現",
          "場"
[...]
